{
  "version": "1.0",
  "truncation": null,
  "padding": null,
  "added_tokens": [
    {
      "id": 151643,
      "content": "<|endoftext|>",
      "single_word": false,
      "lstrip": false,
      "rstrip": false,
      "normalized": false,
      "special": true
    },
    {
      "id": 151644,
      "content": "<|im_start|>",
      "single_word": false,
      "lstrip": false,
      "rstrip": false,
      "normalized": false,
      "special": true
    },
    {
      "id": 151645,
      "content": "<|im_end|>",
      "single_word": false,
      "lstrip": false,
      "rstrip": false,
      "normalized": false,
      "special": true
    },
    {
      "id": 151646,
      "content": "<|object_ref_start|>",
      "single_word": false,
      "lstrip": false,
      "rstrip": false,
      "normalized": false,
      "special": true
    },
    {
      "id": 151647,
      "content": "<|object_ref_end|>",
      "single_word": false,
      "lstrip": false,
      "rstrip": false,
      "normalized": false,
      "special": true
    },
    {
      "id": 151648,
      "content": "<|box_start|>",
      "single_word": false,
      "lstrip": false,
      "rstrip": false,
      "normalized": false,
      "special": true
    },
    {
      "id": 151649,
      "content": "<|box_end|>",
      "single_word": false,
      "lstrip": false,
      "rstrip": false,
      "normalized": false,
      "special": true
    },
    {
      "id": 151650,
      "content": "<|quad_start|>",
      "single_word": false,
      "lstrip": false,
      "rstrip": false,
      "normalized": false,
      "special": true
    },
    {
      "id": 151651,
      "content": "<|quad_end|>",
      "single_word": false,
      "lstrip": false,
      "rstrip": false,
      "normalized": false,
      "special": true
    },
    {
      "id": 151652,
      "content": "<|vision_start|>",
      "single_word": false,
      "lstrip": false,
      "rstrip": false,
      "normalized": false,
      "special": true
    },
    {
      "id": 151653,
      "content": "<|vision_end|>",
      "single_word": false,
      "lstrip": false,
      "rstrip": false,
      "normalized": false,
      "special": true
    },
    {
      "id": 151654,
      "content": "<|vision_pad|>",
      "single_word": false,
      "lstrip": false,
      "rstrip": false,
      "normalized": false,
      "special": true
    },
    {
      "id": 151655,
      "content": "<|image_pad|>",
      "single_word": false,
      "lstrip": false,
      "rstrip": false,
      "normalized": false,
      "special": true
    },
    {
      "id": 151656,
      "content": "<|video_pad|>",
      "single_word": false,
      "lstrip": false,
      "rstrip": false,
      "normalized": false,
      "special": true
    },
    {
      "id": 151657,
      "content": "<tool_call>",
      "single_word": false,
      "lstrip": false,
      "rstrip": false,
      "normalized": false,
      "special": false
    },
    {
      "id": 151658,
      "content": "</tool_call>",
      "single_word": false,
      "lstrip": false,
      "rstrip": false,
      "normalized": false,
      "special": false
    },
    {
      "id": 151659,
      "content": "<|fim_prefix|>",
      "single_word": false,
      "lstrip": false,
      "rstrip": false,
      "normalized": false,
      "special": false
    },
    {
      "id": 151660,
      "content": "<|fim_middle|>",
      "single_word": false,
      "lstrip": false,
      "rstrip": false,
      "normalized": false,
      "special": false
    },
    {
      "id": 151661,
      "content": "<|fim_suffix|>",
      "single_word": false,
      "lstrip": false,
      "rstrip": false,
      "normalized": false,
      "special": false
    },
    {
      "id": 151662,
      "content": "<|fim_pad|>",
      "single_word": false,
      "lstrip": false,
      "rstrip": false,
      "normalized": false,
      "special": false
    },
    {
      "id": 151663,
      "content": "<|repo_name|>",
      "single_word": false,
      "lstrip": false,
      "rstrip": false,
      "normalized": false,
      "special": false
    },
    {
      "id": 151664,
      "content": "<|file_sep|>",
      "single_word": false,
      "lstrip": false,
      "rstrip": false,
      "normalized": false,
      "special": false
    }
  ],
  "normalizer": {
    "type": "NFC"
  },
  "pre_tokenizer": {
    "type": "Sequence",
    "pretokenizers": [
      {
        "type": "Split",
        "pattern": {
          "Regex": "(?i:'s|'t|'re|'ve|'m|'ll|'d)|[^\\r\\n\\p{L}\\p{N}]?\\p{L}+|\\p{N}| ?[^\\s\\p{L}\\p{N}]+[\\r\\n]*|\\s*[\\r\\n]+|\\s+(?!\\S)|\\s+"
        },
        "behavior": "Isolated",
        "invert": false
      },
      {
        "type": "ByteLevel",
        "add_prefix_space": false,
        "trim_offsets": false,
        "use_regex": false
      }
    ]
  },
  "post_processor": {
    "type": "ByteLevel",
    "add_prefix_space": false,
    "trim_offsets": false,
    "use_regex": false
  },
  "decoder": {
    "type": "ByteLevel",
    "add_prefix_space": false,
    "trim_offsets": false,
    "use_regex": false
  },
  "model": {
    "type": "BPE",
    "dropout": null,
    "unk_token": null,
    "continuing_subword_prefix": "",
    "end_of_word_suffix": "",
    "fuse_unk": false,
    "byte_fallback": false,
    "ignore_merges": false,
    "vocab": {
      "!": 0,
      "\"": 1,
      "#": 2,
      "$": 3,
      "%": 4,
      "&": 5,
      "'": 6,
      "(": 7,
      ")": 8,
      "*": 9,
      "+": 10,
      ",": 11,
      "-": 12,
      ".": 13,
      "/": 14,
      "0": 15,
      "1": 16,
      "2": 17,
      "3": 18,
      "4": 19,
      "5": 20,
      "6": 21,
      "7": 22,
      "8": 23,
      "9": 24,
      ":": 25,
      ";": 26,
      "<": 27,
      "=": 28,
      ">": 29,
      "?": 30,
      "@": 31,
      "A": 32,
      "B": 33,
      "C": 34,
      "D": 35,
      "E": 36,
      "F": 37,
      "G": 38,
      "H": 39,
      "I": 40,
      "J": 41,
      "K": 42,
      "L": 43,
      "M": 44,
      "N": 45,
      "O": 46,
      "P": 47,
      "Q": 48,
      "R": 49,
      "S": 50,
      "T": 51,
      "U": 52,
      "V": 53,
      "W": 54,
      "X": 55,
      "Y": 56,
      "Z": 57,
      "[": 58,
      "\\": 59,
      "]": 60,
      "^": 61,
      "_": 62,
      "`": 63,
      "a": 64,
      "b": 65,
      "c": 66,
      "d": 67,
      "e": 68,
      "f": 69,
      "g": 70,
      "h": 71,
      "i": 72,
      "j": 73,
      "k": 74,
      "l": 75,
      "m": 76,
      "n": 77,
      "o": 78,
      "p": 79,
      "q": 80,
      "r": 81,
      "s": 82,
      "t": 83,
      "u": 84,
      "v": 85,
      "w": 86,
      "x": 87,
      "y": 88,
      "z": 89,
      "{": 90,
      "|": 91,
      "}": 92,
      "~": 93,
      "¡": 94,
      "¢": 95,
      "£": 96,
      "¤": 97,
      "¥": 98,
      "¦": 99,
      "§": 100,
      "¨": 101,
      "©": 102,
      "ª": 103,
      "«": 104,
      "¬": 105,
      "®": 106,
      "¯": 107,
      "°": 108,
      "±": 109,
      "²": 110,
      "³": 111,
      "´": 112,
      "µ": 113,
      "¶": 114,
      "·": 115,
      "¸": 116,
      "¹": 117,
      "º": 118,
      "»": 119,
      "¼": 120,
      "½": 121,
      "¾": 122,
      "¿": 123,
      "À": 124,
      "Á": 125,
      "Â": 126,
      "Ã": 127,
      "Ä": 128,
      "Å": 129,
      "Æ": 130,
      "Ç": 131,
      "È": 132,
      "É": 133,
      "Ê": 134,
      "Ë": 135,
      "Ì": 136,
      "Í": 137,
      "Î": 138,
      "Ï": 139,
      "Ð": 140,
      "Ñ": 141,
      "Ò": 142,
      "Ó": 143,
      "Ô": 144,
      "Õ": 145,
      "Ö": 146,
      "×": 147,
      "Ø": 148,
      "Ù": 149,
      "Ú": 150,
      "Û": 151,
      "Ü": 152,
      "Ý": 153,
      "Þ": 154,
      "ß": 155,
      "à": 156,
      "á": 157,
      "â": 158,
      "ã": 159,
      "ä": 160,
      "å": 161,
      "æ": 162,
      "ç": 163,
      "è": 164,
      "é": 165,
      "ê": 166,
      "ë": 167,
      "ì": 168,
      "í": 169,
      "î": 170,
      "ï": 171,
      "ð": 172,
      "ñ": 173,
      "ò": 174,
      "ó": 175,
      "ô": 176,
      "õ": 177,
      "ö": 178,
      "÷": 179,
      "ø": 180,
      "ù": 181,
      "ú": 182,
      "û": 183,
      "ü": 184,
      "ý": 185,
      "þ": 186,
      "ÿ": 187,
      "Ā": 188,
      "ā": 189,
      "Ă": 190,
      "ă": 191,
      "Ą": 192,
      "ą": 193,
      "Ć": 194,
      "ć": 195,
      "Ĉ": 196,
      "ĉ": 197,
      "Ċ": 198,
      "ċ": 199,
      "Č": 200,
      "č": 201,
      "Ď": 202,
      "ď": 203,
      "Đ": 204,
      "đ": 205,
      "Ē": 206,
      "ē": 207,
      "Ĕ": 208,
      "ĕ": 209,
      "Ė": 210,
      "ė": 211,
      "Ę": 212,
      "ę": 213,
      "Ě": 214,
      "ě": 215,
      "Ĝ": 216,
      "ĝ": 217,
      "Ğ": 218,
      "ğ": 219,
      "Ġ": 220,
      "ġ": 221,
      "Ģ": 222,
      "ģ": 223,
      "Ĥ": 224,
      "ĥ": 225,
      "Ħ": 226,
      "ħ": 227,
      "Ĩ": 228,
      "ĩ": 229,
      "Ī": 230,
      "ī": 231,
      "Ĭ": 232,
      "ĭ": 233,
      "Į": 234,
      "į": 235,
      "İ": 236,
      "ı": 237,
      "Ĳ": 238,
      "ĳ": 239,
      "Ĵ": 240,
      "ĵ": 241,
      "Ķ": 242,
      "ķ": 243,
      "ĸ": 244,
      "Ĺ": 245,
      "ĺ": 246,
      "Ļ": 247,
      "ļ": 248,
      "Ľ": 249,
      "ľ": 250,
      "Ŀ": 251,
      "ŀ": 252,
      "Ł": 253,
      "ł": 254,
      "Ń": 255,
      "ĠĠ": 256,
      "ĠĠĠĠ": 257,
      "in": 258,
      "Ġt": 259,
      "ĠĠĠĠĠĠĠĠ": 260,
      "er": 261,
      "ĠĠĠ": 262,
      "on": 263,
      "Ġa": 264,
      "re": 265,
      "at": 266,
      "st": 267,
      "en": 268,
      "or": 269,
      "Ġth": 270,
      "ĊĊ": 271,
      "Ġc": 272,
      "le": 273,
      "Ġs": 274,
      "it": 275,
      "an": 276,
      "ar": 277,
      "al": 278,
      "Ġthe": 279,
      ";Ċ": 280,
      "Ġp": 281,
      "Ġf": 282,
      "ou": 283,
      "Ġ=": 284,
      "is": 285,
      "ĠĠĠĠĠĠĠ": 286,
      "ing": 287,
      "es": 288,
      "Ġw": 289,
      "ion": 290,
      "ed": 291,
      "ic": 292,
      "Ġb": 293,
      "Ġd": 294,
      "et": 295,
      "Ġm": 296,
      "Ġo": 297,
      "ĉĉ": 298,
      "ro": 299,
      "as": 300,
      "el": 301,
      "ct": 302,
      "nd": 303,
      "Ġin": 304,
      "Ġh": 305,
      "ent": 306,
      "id": 307,
      "Ġn": 308,
      "am": 309,
      "ĠĠĠĠĠĠĠĠĠĠĠ": 310,
      "Ġto": 311,
      "Ġre": 312,
      "--": 313,
      "Ġ{": 314,
      "Ġof": 315,
      "om": 316,
      ");Ċ": 317,
      "im": 318,
      "čĊ": 319,
      "Ġ(": 320,
      "il": 321,
      "//": 322,
      "Ġand": 323,
      "ur": 324,
      "se": 325,
      "Ġl": 326,
      "ex": 327,
      "ĠS": 328,
      "ad": 329,
      "Ġ\"": 330,
      "ch": 331,
      "ut": 332,
      "if": 333,
      "**": 334,
      "Ġ}": 335,
      "em": 336,
      "ol": 337,
      "ĠĠĠĠĠĠĠĠĠĠĠĠĠĠĠĠ": 338,
      "th": 339,
      ")Ċ": 340,
      "Ġ{Ċ": 341,
      "Ġg": 342,
      "ig": 343,
      "iv": 344,
      ",Ċ": 345,
      "ce": 346,
      "od": 347,
      "Ġv": 348,
      "ate": 349,
      "ĠT": 350,
      "ag": 351,
      "ay": 352,
      "Ġ*": 353,
      "ot": 354,
      "us": 355,
      "ĠC": 356,
      "Ġst": 357,
      "ĠI": 358,
      "un": 359,
      "ul": 360,
      "ue": 361,
      "ĠA": 362,
      "ow": 363,
      "Ġ'": 364,
      "ew": 365,
      "Ġ<": 366,
      "ation": 367,
      "()": 368,
      "Ġfor": 369,
      "ab": 370,
      "ort": 371,
      "um": 372,
      "ame": 373,
      "Ġis": 374,
      "pe": 375,
      "tr": 376,
      "ck": 377,
      "âĢ": 378,
      "Ġy": 379,
      "ist": 380,
      "----": 381,
      ".ĊĊ": 382,
      "he": 383,
      "Ġe": 384,
      "lo": 385,
      "ĠM": 386,
      "Ġbe": 387,
      "ers": 388,
      "Ġon": 389,
      "Ġcon": 390,
      "ap": 391,
      "ub": 392,
      "ĠP": 393,
      "ĠĠĠĠĠĠĠĠĠĠĠĠĠĠĠ": 394,
      "ass": 395,
      "int": 396,
      ">Ċ": 397,
      "ly": 398,
      "urn": 399,
      "Ġ$": 400,
      ";ĊĊ": 401,
      "av": 402,
      "port": 403,
      "ir": 404,
      "->": 405,
      "nt": 406,
      "ction": 407,
      "end": 408,
      "Ġde": 409,
      "ith": 410,
      "out": 411,
      "turn": 412,
      "our": 413,
      "ĠĠĠĠĠ": 414,
      "lic": 415,
      "res": 416,
      "pt": 417,
      "==": 418,
      "Ġthis": 419,
      "Ġwh": 420,
      "Ġif": 421,
      "ĠD": 422,
      "ver": 423,
      "age": 424,
      "ĠB": 425,
      "ht": 426,
      "ext": 427,
      "=\"": 428,
      "Ġthat": 429,
      "****": 430,
      "ĠR": 431,
      "Ġit": 432,
      "ess": 433,
      "ĠF": 434,
      "Ġr": 435,
      "os": 436,
      "and": 437,
      "Ġas": 438,
      "ect": 439,
      "ke": 440,
      "rom": 441,
      "Ġ//": 442,
      "con": 443,
      "ĠL": 444,
      "(\"": 445,
      "qu": 446,
      "lass": 447,
      "Ġwith": 448,
      "iz": 449,
      "de": 450,
      "ĠN": 451,
      "Ġal": 452,
      "op": 453,
      "up": 454,
      "get": 455,
      "Ġ}Ċ": 456,
      "ile": 457,
      "Ġan": 458,
      "ata": 459,
      "ore": 460,
      "ri": 461,
      "Ġpro": 462,
      ";čĊ": 463,
      "ĉĉĉĉ": 464,
      "ter": 465,
      "ain": 466,
      "ĠW": 467,
      "ĠE": 468,
      "Ġcom": 469,
      "Ġreturn": 470,
      "art": 471,
      "ĠH": 472,
      "ack": 473,
      "import": 474,
      "ublic": 475,
      "Ġor": 476,
      "est": 477,
      "ment": 478,
      "ĠG": 479,
      "able": 480,
      "Ġ-": 481,
      "ine": 482,
      "ill": 483,
      "ind": 484,
      "ere": 485,
      "::": 486,
      "ity": 487,
      "Ġ+": 488,
      "Ġtr": 489,
      "elf": 490,
      "ight": 491,
      "('": 492,
      "orm": 493,
      "ult": 494,
      "str": 495,
      "..": 496,
      "\",": 497,
      "Ġyou": 498,
      "ype": 499,
      "pl": 500,
      "Ġnew": 501,
      "Ġj": 502,
      "ĠĠĠĠĠĠĠĠĠĠĠĠĠĠĠĠĠĠĠ": 503,
      "Ġfrom": 504,
      "Ġex": 505,
      "ĠO": 506,
      "ld": 507,
      "Ġ[": 508,
      "oc": 509,
      ":Ċ": 510,
      "Ġse": 511,
      "Ġle": 512,
      "--------": 513,
      ".s": 514,
      "{Ċ": 515,
      "',": 516,
      "ant": 517,
      "Ġat": 518,
      "ase": 519,
      ".c": 520,
      "Ġch": 521,
      "</": 522,
      "ave": 523,
      "ang": 524,
      "Ġare": 525,
      "Ġint": 526,
      "âĢĻ": 527,
      "_t": 528,
      "ert": 529,
      "ial": 530,
      "act": 531,
      "}Ċ": 532,
      "ive": 533,
      "ode": 534,
      "ost": 535,
      "Ġclass": 536,
      "Ġnot": 537,
      "og": 538,
      "ord": 539,
      "alue": 540,
      "all": 541,
      "ff": 542,
      "();Ċ": 543,
      "ont": 544,
      "ime": 545,
      "are": 546,
      "ĠU": 547,
      "Ġpr": 548,
      "Ġ:": 549,
      "ies": 550,
      "ize": 551,
      "ure": 552,
      "Ġby": 553,
      "ire": 554,
      "Ġ}ĊĊ": 555,
      ".p": 556,
      "Ġsh": 557,
      "ice": 558,
      "ast": 559,
      "ption": 560,
      "tring": 561,
      "ok": 562,
      "__": 563,
      "cl": 564,
      "##": 565,
      "Ġhe": 566,
      "ard": 567,
      ").": 568,
      "Ġ@": 569,
      "iew": 570,
      "ĉĉĉ": 571,
      "Ġwas": 572,
      "ip": 573,
      "this": 574,
      "Ġu": 575,
      "ĠThe": 576,
      "ide": 577,
      "ace": 578,
      "ib": 579,
      "ac": 580,
      "rou": 581,
      "Ġwe": 582,
      "ject": 583,
      "Ġpublic": 584,
      "ak": 585,
      "ve": 586,
      "ath": 587,
      "oid": 588,
      "Ġ=>": 589,
      "ust": 590,
      "que": 591,
      "Ġres": 592,
      "))": 593,
      "'s": 594,
      "Ġk": 595,
      "ans": 596,
      "yst": 597,
      "unction": 598,
      "********": 599,
      "Ġi": 600,
      "Ġus": 601,
      "pp": 602,
      "one": 603,
      "ail": 604,
      "====": 605,
      "name": 606,
      "Ġstr": 607,
      "Ġ/": 608,
      "Ġ&": 609,
      "ach": 610,
      "div": 611,
      "ystem": 612,
      "ell": 613,
      "Ġhave": 614,
      "err": 615,
      "ould": 616,
      "ull": 617,
      "pon": 618,
      "ĠJ": 619,
      "_p": 620,
      "Ġ==": 621,
      "ign": 622,
      "St": 623,
      ".Ċ": 624,
      "Ġpl": 625,
      ");ĊĊ": 626,
      "form": 627,
      "put": 628,
      "ount": 629,
      "}ĊĊ": 630,
      "dd": 631,
      "ite": 632,
      "Ġget": 633,
      "rr": 634,
      "ome": 635,
      "ĠâĢ": 636,
      "aram": 637,
      "cc": 638,
      "Ġ*/": 639,
      "ER": 640,
      "In": 641,
      "les": 642,
      "_s": 643,
      "ong": 644,
      "ie": 645,
      "Ġcan": 646,
      "ĠV": 647,
      "erv": 648,
      "pr": 649,
      "Ġun": 650,
      "row": 651,
      "ber": 652,
      "Ġdo": 653,
      "ll": 654,
      "Ġel": 655,
      "Ġself": 656,
      "ated": 657,
      "ary": 658,
      "Ġ.": 659,
      "']": 660,
      "ud": 661,
      "Ġen": 662,
      "ĠTh": 663,
      "ĠĠĠĠĠĠĠĠĠĠĠĠĠĠĠĠĠĠĠĠĠĠĠ": 664,
      "te": 665,
      "_c": 666,
      "uct": 667,
      "Ġab": 668,
      "ork": 669,
      ".get": 670,
      "Ġ#": 671,
      "aw": 672,
      "ress": 673,
      "ob": 674,
      "Name": 675,
      "app": 676,
      "['": 677,
      "Ġall": 678,
      "ory": 679,
      "ition": 680,
      "ance": 681,
      "ear": 682,
      "Ġcont": 683,
      "vent": 684,
      "ia": 685,
      "Ġwill": 686,
      "IN": 687,
      "ĠĠĠĠĠĠĠĠĠ": 688,
      "return": 689,
      "Ġ</": 690,
      "data": 691,
      ")ĊĊ": 692,
      "Re": 693,
      "ple": 694,
      "ild": 695,
      "ther": 696,
      "Ġyour": 697,
      "\"Ċ": 698,
      "($": 699,
      "Ġout": 700,
      "),": 701,
      "Ġhas": 702,
      "String": 703,
      "so": 704,
      "Ġup": 705,
      "ax": 706,
      "Ġdef": 707,
      "Ġbo": 708,
      "ge": 709,
      "alse": 710,
      "ON": 711,
      "per": 712,
      "ich": 713,
      "Ġbut": 714,
      "ĠĊ": 715,
      "Ġ_": 716,
      "_m": 717,
      "add": 718,
      "quest": 719,
      "odel": 720,
      "self": 721,
      "ery": 722,
      "ft": 723,
      "ens": 724,
      "////": 725,
      "ake": 726,
      ".C": 727,
      "Ġgo": 728,
      "Ġfunction": 729,
      "ĠK": 730,
      "ivate": 731,
      "Ġim": 732,
      "Ġconst": 733,
      ".t": 734,
      "Ġ*/Ċ": 735,
      ");čĊ": 736,
      "Ġvoid": 737,
      "Ġset": 738,
      "ĠSystem": 739,
      "cri": 740,
      "()Ċ": 741,
      "li": 742,
      "ĉif": 743,
      ".m": 744,
      "ally": 745,
      "set": 746,
      "ep": 747,
      "âĢĻs": 748,
      "bo": 749,
      "def": 750,
      "',Ċ": 751,
      "Ġme": 752,
      "Ġ!": 753,
      "atch": 754,
      "\">": 755,
      "\",Ċ": 756,
      "ec": 757,
      "ĠIn": 758,
      "ph": 759,
      "Ġ|": 760,
      "_f": 761,
      "Ġvar": 762,
      "ence": 763,
      "Id": 764,
      "ree": 765,
      "ink": 766,
      "lect": 767,
      "ug": 768,
      "eth": 769,
      "Ġelse": 770,
      "----------------": 771,
      "cont": 772,
      "Ġso": 773,
      "atic": 774,
      "Ġlo": 775,
      "pro": 776,
      "ton": 777,
      "ss": 778,
      "own": 779,
      "abel": 780,
      "oint": 781,
      "ous": 782,
      "eld": 783,
      "ST": 784,
      "The": 785,
      "ĠĠĠĠĠĠĠĠĠĠĠĠĠĠĠĠĠĠĠĠĠĠĠĠĠĠĠĠĠĠĠĠ": 786,
      "RE": 787,
      "\":": 788,
      "olor": 789,
      "tp": 790,
      "eg": 791,
      "key": 792,
      "ude": 793,
      "ĠSt": 794,
      "ound": 795,
      "Ġar": 796,
      "\");Ċ": 797,
      "ener": 798,
      "ser": 799,
      "bject": 800,
      "essage": 801,
      "fer": 802,
      "Ġmore": 803,
      "ations": 804,
      "ents": 805,
      "Ġhis": 806,
      "Ġthey": 807,
      ".S": 808,
      "ĠY": 809,
      "use": 810,
      "ne": 811,
      "ish": 812,
      "old": 813,
      "_d": 814,
      "io": 815,
      "ield": 816,
      "Ġper": 817,
      "Cont": 818,
      "ings": 819,
      "####": 820,
      "Ġdata": 821,
      "Ġsa": 822,
      "ef": 823,
      "fo": 824,
      "Ġone": 825,
      "eng": 826,
      "Ġdis": 827,
      "AT": 828,
      "Ġname": 829,
      "Ġtrue": 830,
      "val": 831,
      "led": 832,
      ".f": 833,
      "Ġne": 834,
      "Ġend": 835,
      ".T": 836,
      "cre": 837,
      "ark": 838,
      "log": 839,
      "Ex": 840,
      "error": 841,
      "_id": 842,
      "urre": 843,
      "ange": 844,
      "Ġnull": 845,
      "rray": 846,
      "Ġmy": 847,
      "pan": 848,
      "ict": 849,
      "ator": 850,
      "View": 851,
      "List": 852,
      "ĉreturn": 853,
      "âĢĿ": 854,
      "Ġpre": 855,
      "Ġx": 856,
      "clude": 857,
      "arg": 858,
      "ov": 859,
      ".h": 860,
      "Ġ>": 861,
      "Ġtheir": 862,
      "')": 863,
      "irst": 864,
      "ick": 865,
      "gh": 866,
      "LE": 867,
      "OR": 868,
      "Ġprivate": 869,
      "tem": 870,
      "čĊčĊ": 871,
      "user": 872,
      "Ġ)": 873,
      "com": 874,
      ".A": 875,
      "\";Ċ": 876,
      "Ġid": 877,
      "read": 878,
      "Ġwho": 879,
      "_b": 880,
      "\">Ċ": 881,
      "Ġtime": 882,
      "Ġman": 883,
      "ry": 884,
      "========": 885,
      "roup": 886,
      "rop": 887,
      "public": 888,
      "vel": 889,
      "umber": 890,
      "ble": 891,
      "Ġwhich": 892,
      "****************": 893,
      "Ġany": 894,
      "Ġfalse": 895,
      "we": 896,
      "Ġvalue": 897,
      "Ġli": 898,
      "\")": 899,
      "nder": 900,
      "gr": 901,
      "Ġno": 902,
      "param": 903,
      "fig": 904,
      ".com": 905,
      "Ġapp": 906,
      "_l": 907,
      "ions": 908,
      ".D": 909,
      "ĠCh": 910,
      "Ġabout": 911,
      "Ġadd": 912,
      "Ġsu": 913,
      "Ġstring": 914,
      "ID": 915,
      "Ġover": 916,
      "string": 917,
      ".l": 918,
      "ource": 919,
      "_C": 920,
      "]Ċ": 921,
      "Ġqu": 922,
      "ĠString": 923,
      "ca": 924,
      "SE": 925,
      "Ġro": 926,
      "sh": 927,
      "ual": 928,
      "Type": 929,
      "son": 930,
      "new": 931,
      "ern": 932,
      "Ġag": 933,
      "AR": 934,
      "];Ċ": 935,
      "].": 936,
      "Ġ?": 937,
      "ical": 938,
      "Ġdes": 939,
      "uth": 940,
      "ix": 941,
      "ays": 942,
      "Ġtype": 943,
      "'t": 944,
      "ault": 945,
      "Ġinter": 946,
      "var": 947,
      ".b": 948,
      "Ġpart": 949,
      ".d": 950,
      "urrent": 951,
      "IT": 952,
      "EN": 953,
      "enc": 954,
      "(f": 955,
      "ra": 956,
      "value": 957,
      "cho": 958,
      "utton": 959,
      "ose": 960,
      "Ġ!=": 961,
      "ater": 962,
      "Ã©": 963,
      "reate": 964,
      "oll": 965,
      "pos": 966,
      "yle": 967,
      "ng": 968,
      "AL": 969,
      "using": 970,
      "ames": 971,
      "Ġ{čĊ": 972,
      "ates": 973,
      "ely": 974,
      "Ġwork": 975,
      "Ġem": 976,
      "inal": 977,
      "Ġsp": 978,
      "Ġwhen": 979,
      ".set": 980,
      "ĠĠĠĠĠĠ": 981,
      "):Ċ": 982,
      "to": 983,
      "quire": 984,
      "indow": 985,
      "lement": 986,
      "pect": 987,
      "ash": 988,
      "[i": 989,
      "Ġuse": 990,
      ".F": 991,
      "pec": 992,
      "Ġad": 993,
      "ove": 994,
      "ception": 995,
      "ength": 996,
      "include": 997,
      "ader": 998,
      "ĠĠĠĠĠĠĠĠĠĠĠĠĠĠĠĠĠĠĠĠĠĠĠĠĠĠĠ": 999,
      "atus": 1000,
      "Th": 1001,
      "itle": 1002,
      "rit": 1003,
      "void": 1004,
      "().": 1005,
      "(Ċ": 1006,
      "Ġoff": 1007,
      "Ġother": 1008,
      "Ġ&&": 1009,
      "';Ċ": 1010,
      "ms": 1011,
      "Ġbeen": 1012,
      "Ġte": 1013,
      "ml": 1014,
      "co": 1015,
      "nc": 1016,
      "ervice": 1017,
      "Ġ%": 1018,
      "**Ċ": 1019,
      "ann": 1020,
      "ade": 1021,
      "ĊĊĊĊ": 1022,
      "lock": 1023,
      "const": 1024,
      "ponse": 1025,
      "Ġsup": 1026,
      "++": 1027,
      "date": 1028,
      "Ġacc": 1029,
      "Ġhad": 1030,
      "Ġbu": 1031,
      "ĠRe": 1032,
      "Ġwere": 1033,
      "Ġfile": 1034,
      "Ġwould": 1035,
      "ĠâĢľ": 1036,
      "ven": 1037,
      "iss": 1038,
      "Ġour": 1039,
      "class": 1040,
      "raw": 1041,
      "Ġyear": 1042,
      "Data": 1043,
      "Ġval": 1044,
      "Ġsome": 1045,
      "fter": 1046,
      "ys": 1047,
      "Ġ///": 1048,
      "round": 1049,
      "view": 1050,
      "Ġpe": 1051,
      "Ġthere": 1052,
      "Ġsaid": 1053,
      "du": 1054,
      "of": 1055,
      "line": 1056,
      "/*": 1057,
      "duct": 1058,
      "Ġher": 1059,
      "ĠĠĠĠĠĠĠĠĠĠĠĠĠ": 1060,
      "Res": 1061,
      "Ġco": 1062,
      "Ġcomm": 1063,
      "ise": 1064,
      "min": 1065,
      "ĠĠĠĠĊ": 1066,
      "#include": 1067,
      "ethod": 1068,
      ".P": 1069,
      "ute": 1070,
      "Ġass": 1071,
      "Int": 1072,
      "ask": 1073,
      "loc": 1074,
      "Ġlike": 1075,
      "ody": 1076,
      "Ġlet": 1077,
      "load": 1078,
      "Ġam": 1079,
      "rol": 1080,
      "Ġgr": 1081,
      "yp": 1082,
      "Ġalso": 1083,
      "ĠIt": 1084,
      "url": 1085,
      "ific": 1086,
      "ors": 1087,
      "_P": 1088,
      "_n": 1089,
      "igh": 1090,
      "Ġthan": 1091,
      "Com": 1092,
      "AN": 1093,
      "UL": 1094,
      "ating": 1095,
      "ĠThis": 1096,
      "ref": 1097,
      "_S": 1098,
      "Ġstatic": 1099,
      "roll": 1100,
      "Ġjust": 1101,
      "Ġresult": 1102,
      "ian": 1103,
      "idth": 1104,
      "Ġthem": 1105,
      "));Ċ": 1106,
      "der": 1107,
      "reak": 1108,
      "Con": 1109,
      "://": 1110,
      "ule": 1111,
      "...": 1112,
      "arch": 1113,
      "ement": 1114,
      "Ġ<<": 1115,
      "ush": 1116,
      "ense": 1117,
      "arr": 1118,
      "Ġinto": 1119,
      "cess": 1120,
      "amp": 1121,
      "ied": 1122,
      "ument": 1123,
      "Ġ\\": 1124,
      "],": 1125,
      "wo": 1126,
      "als": 1127,
      "Ġwhat": 1128,
      "anc": 1129,
      "Value": 1130,
      "='": 1131,
      "olum": 1132,
      "Ġpos": 1133,
      "ages": 1134,
      "ayer": 1135,
      "Ġsc": 1136,
      "ues": 1137,
      "\")Ċ": 1138,
      "_T": 1139,
      "Ġlist": 1140,
      "(s": 1141,
      "Ġcase": 1142,
      "Ch": 1143,
      "ĉĉĉĉĉ": 1144,
      "////////": 1145,
      "ponent": 1146,
      "Ġz": 1147,
      "Ġkn": 1148,
      "let": 1149,
      "DE": 1150,
      "red": 1151,
      "Ġfe": 1152,
      "Ġ},Ċ": 1153,
      "Ġ,": 1154,
      "(t": 1155,
      "Ġfirst": 1156,
      "');Ċ": 1157,
      "word": 1158,
      "Ġimport": 1159,
      "Ġact": 1160,
      "Ġchar": 1161,
      "CT": 1162,
      "ĠTr": 1163,
      "ople": 1164,
      "={": 1165,
      "ĉf": 1166,
      "ient": 1167,
      "cent": 1168,
      ".j": 1169,
      "lection": 1170,
      "))Ċ": 1171,
      "Ġonly": 1172,
      "Ġprint": 1173,
      "mer": 1174,
      ".W": 1175,
      "ock": 1176,
      "Ġ--": 1177,
      "Text": 1178,
      "Ġop": 1179,
      "ank": 1180,
      "Ġits": 1181,
      "Ġback": 1182,
      "[\"": 1183,
      "Ġneed": 1184,
      "Ġcl": 1185,
      "Ġsub": 1186,
      "Ġla": 1187,
      "((": 1188,
      ".\"": 1189,
      "Object": 1190,
      "Ġstart": 1191,
      "file": 1192,
      "(self": 1193,
      "ner": 1194,
      "ey": 1195,
      "Ġuser": 1196,
      "Ġent": 1197,
      "ĠCom": 1198,
      "its": 1199,
      "ĠCon": 1200,
      "ouble": 1201,
      "ower": 1202,
      "item": 1203,
      "very": 1204,
      "ĠWe": 1205,
      "lick": 1206,
      "ĠQ": 1207,
      "php": 1208,
      "ttp": 1209,
      "':": 1210,
      "ics": 1211,
      "Ġunder": 1212,
      "Ġ*Ċ": 1213,
      ".L": 1214,
      ");": 1215,
      "ices": 1216,
      "Ġreg": 1217,
      ")čĊ": 1218,
      "ĉpublic": 1219,
      "SS": 1220,
      "Ġthen": 1221,
      "reat": 1222,
      "ious": 1223,
      ".G": 1224,
      "ek": 1225,
      "irect": 1226,
      "heck": 1227,
      "cript": 1228,
      "ning": 1229,
      "ĠUn": 1230,
      "Ġmay": 1231,
      "ĠWh": 1232,
      "Bo": 1233,
      "Item": 1234,
      "struct": 1235,
      ".st": 1236,
      "ream": 1237,
      "ible": 1238,
      "loat": 1239,
      "Ġorg": 1240,
      "und": 1241,
      "sum": 1242,
      "_in": 1243,
      "../": 1244,
      "_M": 1245,
      "Ġhow": 1246,
      "rite": 1247,
      "'Ċ": 1248,
      "To": 1249,
      "ww": 1250,
      "Ġpeople": 1251,
      "index": 1252,
      ".n": 1253,
      "http": 1254,
      "(m": 1255,
      "ector": 1256,
      "Ġind": 1257,
      "Ġjav": 1258,
      "],Ċ": 1259,
      "ĠHe": 1260,
      "_st": 1261,
      "ful": 1262,
      "ole": 1263,
      "){Ċ": 1264,
      "Ġshould": 1265,
      "opy": 1266,
      "elp": 1267,
      "ier": 1268,
      "_name": 1269,
      "erson": 1270,
      "ION": 1271,
      "ote": 1272,
      "Ġtest": 1273,
      "Ġbet": 1274,
      "rror": 1275,
      "ular": 1276,
      "ãĢ": 1277,
      "ĠÐ": 1278,
      "bs": 1279,
      "ting": 1280,
      "Ġmake": 1281,
      "Tr": 1282,
      "Ġafter": 1283,
      "arget": 1284,
      "RO": 1285,
      "olumn": 1286,
      "rc": 1287,
      "_re": 1288,
      "define": 1289,
      "Ġright": 1290,
      "right": 1291,
      "day": 1292,
      "Ġlong": 1293,
      "[]": 1294,
      "(p": 1295,
      "td": 1296,
      "cond": 1297,
      "ĠPro": 1298,
      "Ġrem": 1299,
      "ptions": 1300,
      "vid": 1301,
      ".g": 1302,
      "Ġext": 1303,
      "Ġ__": 1304,
      "')Ċ": 1305,
      "pace": 1306,
      "mp": 1307,
      "Ġmin": 1308,
      "stance": 1309,
      "air": 1310,
      "action": 1311,
      "wh": 1312,
      "type": 1313,
      "util": 1314,
      "ait": 1315,
      "<?": 1316,
      "IC": 1317,
      "text": 1318,
      "Ġph": 1319,
      "Ġfl": 1320,
      ".M": 1321,
      "ccess": 1322,
      "br": 1323,
      "fore": 1324,
      "ersion": 1325,
      "),Ċ": 1326,
      ".re": 1327,
      "ateg": 1328,
      "Ġloc": 1329,
      "ins": 1330,
      "-s": 1331,
      "trib": 1332,
      "ĠInt": 1333,
      "Ġarray": 1334,
      ",\"": 1335,
      "Pro": 1336,
      "(c": 1337,
      "ession": 1338,
      ">ĊĊ": 1339,
      "Ġshe": 1340,
      "\"]": 1341,
      "aph": 1342,
      "Ġexp": 1343,
      "erty": 1344,
      "ĠSe": 1345,
      "Ġpar": 1346,
      "unc": 1347,
      "ET": 1348,
      "Ġread": 1349,
      "print": 1350,
      "Ġrel": 1351,
      "Ġform": 1352,
      "Ġdr": 1353,
      "Exception": 1354,
      "input": 1355,
      "Ġtrans": 1356,
      "########": 1357,
      "order": 1358,
      "By": 1359,
      "Ġaw": 1360,
      "ities": 1361,
      "uff": 1362,
      "play": 1363,
      ".add": 1364,
      "ĠâĢĵ": 1365,
      "Ġwant": 1366,
      "Ġcomp": 1367,
      "ments": 1368,
      "Ġ||": 1369,
      "az": 1370,
      "be": 1371,
      "Ġnumber": 1372,
      "Ġrequire": 1373,
      "ĠEx": 1374,
      "Ġcol": 1375,
      "Ġkey": 1376,
      "ember": 1377,
      "Ġtwo": 1378,
      "Ġsize": 1379,
      "Ġwhere": 1380,
      "UT": 1381,
      "result": 1382,
      "ĠĠĠĠĠĠĠĠĠĠĠĠĠĠĠĠĠĠĠĠĠĠĠĠĠĠĠĠĠĠĠ": 1383,
      "ough": 1384,
      "orld": 1385,
      "ood": 1386,
      "uch": 1387,
      "ative": 1388,
      "ger": 1389,
      "arent": 1390,
      "Ġ/*": 1391,
      "Ġarg": 1392,
      "Ġwhile": 1393,
      "(this": 1394,
      "Ġrec": 1395,
      "Ġdif": 1396,
      "State": 1397,
      "Ġspec": 1398,
      "ride": 1399,
      "_F": 1400,
      "Ġlook": 1401,
      "AM": 1402,
      "ility": 1403,
      "eter": 1404,
      "âĢĻt": 1405,
      "ĊĊĊ": 1406,
      "ayout": 1407,
      "--------------------------------": 1408,
      "ager": 1409,
      "Ġcould": 1410,
      "Ġbr": 1411,
      "ends": 1412,
      "ures": 1413,
      "Ġknow": 1414,
      "ets": 1415,
      "ĠIf": 1416,
      "ĠSh": 1417,
      ".w": 1418,
      "back": 1419,
      "Ġser": 1420,
      "Ġ+=": 1421,
      "Ġfr": 1422,
      "());Ċ": 1423,
      "Ġhand": 1424,
      "Ind": 1425,
      "ULL": 1426,
      "Im": 1427,
      "();ĊĊ": 1428,
      "Ġmost": 1429,
      "Ġtry": 1430,
      "Ġnow": 1431,
      "rough": 1432,
      ">čĊ": 1433,
      "ackage": 1434,
      "Ġhim": 1435,
      "._": 1436,
      "ify": 1437,
      "Ġbreak": 1438,
      "Ġ);Ċ": 1439,
      "ren": 1440,
      "#define": 1441,
      "itt": 1442,
      "Ġap": 1443,
      "ĉc": 1444,
      "(n": 1445,
      "ĠYou": 1446,
      ":ĊĊ": 1447,
      "-m": 1448,
      "Ġevery": 1449,
      "ustom": 1450,
      "lient": 1451,
      "ocument": 1452,
      "cription": 1453,
      "Error": 1454,
      "-b": 1455,
      "Ð¾": 1456,
      "][": 1457,
      "trans": 1458,
      "Ġpoint": 1459,
      "Ġstd": 1460,
      "Ġfil": 1461,
      "Time": 1462,
      "Ġmod": 1463,
      "Ġ->": 1464,
      "Ġerror": 1465,
      "ah": 1466,
      "Ġtext": 1467,
      "roller": 1468,
      "lose": 1469,
      "ql": 1470,
      "Ġpol": 1471,
      "></": 1472,
      "Ġshow": 1473,
      "User": 1474,
      "ased": 1475,
      "Ġ{ĊĊ": 1476,
      "Ġfind": 1477,
      "Ð°": 1478,
      "ED": 1479,
      "span": 1480,
      "enu": 1481,
      "Ġcurrent": 1482,
      "Ġused": 1483,
      "cept": 1484,
      "clud": 1485,
      "Ġplay": 1486,
      "Ġlog": 1487,
      "ution": 1488,
      "fl": 1489,
      "Ġsee": 1490,
      "indows": 1491,
      "Ġhelp": 1492,
      "Ġthese": 1493,
      "Ġpass": 1494,
      "Ġdown": 1495,
      "Ġeven": 1496,
      "ason": 1497,
      "uild": 1498,
      "from": 1499,
      "(d": 1500,
      "Ġbl": 1501,
      "label": 1502,
      "else": 1503,
      "Ðµ": 1504,
      "Ġ(!": 1505,
      "ized": 1506,
      "(),": 1507,
      "Ġob": 1508,
      "Ġitem": 1509,
      "ump": 1510,
      "UR": 1511,
      "orn": 1512,
      "Ġdon": 1513,
      "Se": 1514,
      "man": 1515,
      "ample": 1516,
      "tn": 1517,
      "================": 1518,
      "He": 1519,
      "gram": 1520,
      "Ġdid": 1521,
      "wn": 1522,
      "_h": 1523,
      "iver": 1524,
      "Ġsm": 1525,
      "Ġthrough": 1526,
      "ĠAn": 1527,
      "che": 1528,
      "Ġinv": 1529,
      "ouse": 1530,
      "Ġes": 1531,
      "ĠNew": 1532,
      "export": 1533,
      "mary": 1534,
      "uto": 1535,
      "ler": 1536,
      "Ġlast": 1537,
      "Ġevent": 1538,
      "try": 1539,
      "ï¼": 1540,
      "ily": 1541,
      "igned": 1542,
      "ines": 1543,
      "ollow": 1544,
      "icense": 1545,
      "sole": 1546,
      "lear": 1547,
      "(int": 1548,
      "Ġagain": 1549,
      "Ġhigh": 1550,
      "html": 1551,
      "Index": 1552,
      "uthor": 1553,
      "Ġ/**Ċ": 1554,
      "Ġline": 1555,
      "Event": 1556,
      "_D": 1557,
      "Ġdoes": 1558,
      "itial": 1559,
      "Ġcr": 1560,
      "ars": 1561,
      "Ġtem": 1562,
      "cause": 1563,
      "face": 1564,
      "Ġ`": 1565,
      "_A": 1566,
      "Button": 1567,
      "ature": 1568,
      "ected": 1569,
      "ES": 1570,
      "ister": 1571,
      "ĉĊ": 1572,
      "Ġbefore": 1573,
      "ale": 1574,
      "other": 1575,
      "Ġbecause": 1576,
      "roid": 1577,
      "Ġed": 1578,
      "ik": 1579,
      "reg": 1580,
      "ĠDe": 1581,
      "Ġdist": 1582,
      "},Ċ": 1583,
      "Ġstate": 1584,
      "Ġcons": 1585,
      "rint": 1586,
      "att": 1587,
      "Ġhere": 1588,
      "ined": 1589,
      "Ġfinal": 1590,
      "Ġ\"\"": 1591,
      "Key": 1592,
      "LO": 1593,
      "Ġdel": 1594,
      "pty": 1595,
      "thing": 1596,
      "ĠAnd": 1597,
      "Ġrun": 1598,
      "ĠX": 1599,
      "ym": 1600,
      ".app": 1601,
      "Ġvery": 1602,
      "ces": 1603,
      "_N": 1604,
      "ared": 1605,
      "ward": 1606,
      "list": 1607,
      "ited": 1608,
      "olog": 1609,
      "itch": 1610,
      "Box": 1611,
      "ife": 1612,
      "Ġac": 1613,
      "Ġmodel": 1614,
      "Ġmon": 1615,
      "Ġway": 1616,
      "lete": 1617,
      "Ġcall": 1618,
      "Ġatt": 1619,
      "Ġcal": 1620,
      "vert": 1621,
      "Ġdec": 1622,
      "lease": 1623,
      "oun": 1624,
      "Ġ});Ċ": 1625,
      "fr": 1626,
      "formation": 1627,
      "etail": 1628,
      "Ġnum": 1629,
      "aj": 1630,
      "query": 1631,
      "Ġwell": 1632,
      "Ġobject": 1633,
      "ĠAs": 1634,
      "Ġyears": 1635,
      "Color": 1636,
      "IS": 1637,
      "Ġdefault": 1638,
      "Wh": 1639,
      "Ġins": 1640,
      "aint": 1641,
      "Ġjava": 1642,
      "Ġsim": 1643,
      "ĠAr": 1644,
      "mon": 1645,
      "til": 1646,
      "();čĊ": 1647,
      "):": 1648,
      "Set": 1649,
      "atter": 1650,
      "Ġview": 1651,
      "Ġpres": 1652,
      "array": 1653,
      "We": 1654,
      "At": 1655,
      "Ġbel": 1656,
      "Ġmany": 1657,
      "Man": 1658,
      "ender": 1659,
      "Ġbeing": 1660,
      "Ġgood": 1661,
      "ĉĉĉĉĉĉ": 1662,
      "ational": 1663,
      "ware": 1664,
      ".log": 1665,
      "{čĊ": 1666,
      "Ġusing": 1667,
      "_B": 1668,
      "Ġ:=": 1669,
      "_w": 1670,
      "ists": 1671,
      "lish": 1672,
      "Ġstud": 1673,
      "ĠAl": 1674,
      "Ġgu": 1675,
      "config": 1676,
      "uring": 1677,
      "time": 1678,
      "oken": 1679,
      "amespace": 1680,
      "Ġrequest": 1681,
      "Ġchild": 1682,
      "ĠÃ": 1683,
      "lob": 1684,
      "Ġparam": 1685,
      "Ġ}čĊ": 1686,
      "Ġecho": 1687,
      "function": 1688,
      "********************************": 1689,
      "ps": 1690,
      "Element": 1691,
      "alk": 1692,
      "lication": 1693,
      "by": 1694,
      "Size": 1695,
      "rawing": 1696,
      "Ġperson": 1697,
      "ĠĠĠĠĠĠĠĠĠĠĠĠĠĠĠĠĠ": 1698,
      "\\n": 1699,
      "object": 1700,
      "ince": 1701,
      "En": 1702,
      "File": 1703,
      "uf": 1704,
      "ffect": 1705,
      "AC": 1706,
      "Ġstyle": 1707,
      "summary": 1708,
      "Ġque": 1709,
      "_r": 1710,
      "Ġ($": 1711,
      "Model": 1712,
      "ident": 1713,
      "Ġmethod": 1714,
      "IL": 1715,
      "ott": 1716,
      "less": 1717,
      "ING": 1718,
      "Ġ()": 1719,
      "Ġexpect": 1720,
      "ync": 1721,
      "package": 1722,
      "urs": 1723,
      "Ġprot": 1724,
      "./": 1725,
      "pre": 1726,
      "Ġ)Ċ": 1727,
      "ma": 1728,
      "Ġsur": 1729,
      "Ġfound": 1730,
      "Info": 1731,
      "par": 1732,
      "imes": 1733,
      ".e": 1734,
      "ains": 1735,
      "Ġpost": 1736,
      "-d": 1737,
      "olean": 1738,
      "Ġsl": 1739,
      "PE": 1740,
      "Ġsuch": 1741,
      "select": 1742,
      "ainer": 1743,
      "Ġthink": 1744,
      "Ġdiffer": 1745,
      ".r": 1746,
      "/**Ċ": 1747,
      "FF": 1748,
      "ool": 1749,
      "plate": 1750,
      "qual": 1751,
      "ĠFor": 1752,
      "Ġmuch": 1753,
      "uc": 1754,
      "(new": 1755,
      "odule": 1756,
      "Ġsom": 1757,
      "Ġhttp": 1758,
      "ĠList": 1759,
      "Ġcount": 1760,
      "Ġinst": 1761,
      "char": 1762,
      "mit": 1763,
      ".id": 1764,
      "aking": 1765,
      "Ġgener": 1766,
      "px": 1767,
      "vice": 1768,
      "_data": 1769,
      "ĠNULL": 1770,
      "}čĊ": 1771,
      "idd": 1772,
      "ãĢĤ": 1773,
      "Ġmed": 1774,
      "org": 1775,
      "ider": 1776,
      "ache": 1777,
      "work": 1778,
      "Ġcheck": 1779,
      "ween": 1780,
      "Ġ((": 1781,
      "the": 1782,
      "ants": 1783,
      "><": 1784,
      ".B": 1785,
      "-c": 1786,
      "Ġopen": 1787,
      "Ġest": 1788,
      "ĠĠĠĠĠĠĠĠĊ": 1789,
      "Ġnext": 1790,
      "IM": 1791,
      "ÑĤ": 1792,
      "OT": 1793,
      "Ã³": 1794,
      "Ġfollow": 1795,
      "content": 1796,
      "ĠĠĠĠĠĠĠĠĠĠĠĠ": 1797,
      "Ġinclud": 1798,
      "HE": 1799,
      "ĠRes": 1800,
      "Ġhref": 1801,
      "Ð¸": 1802,
      "Ġcar": 1803,
      "ypes": 1804,
      "image": 1805,
      "Un": 1806,
      "Ġbool": 1807,
      "AD": 1808,
      "Ġgame": 1809,
      ".Form": 1810,
      "rows": 1811,
      "*/": 1812,
      "velop": 1813,
      ".Drawing": 1814,
      "Ġpath": 1815,
      "ision": 1816,
      "Ġeach": 1817,
      "ĠPl": 1818,
      "_type": 1819,
      "Path": 1820,
      "nection": 1821,
      "Ġav": 1822,
      "').": 1823,
      "Ġsupport": 1824,
      "ENT": 1825,
      "rem": 1826,
      "\").": 1827,
      "Ġown": 1828,
      "Ġcor": 1829,
      "count": 1830,
      "miss": 1831,
      "ually": 1832,
      "Ġmem": 1833,
      "std": 1834,
      "ience": 1835,
      "search": 1836,
      "\"ĊĊ": 1837,
      "Form": 1838,
      "Ġsex": 1839,
      "ename": 1840,
      "Ġsign": 1841,
      "Ġet": 1842,
      "ĠĠĠĠĠĠĠĠĠĠ": 1843,
      "','": 1844,
      "ĠApp": 1845,
      "Ġthose": 1846,
      "off": 1847,
      "Ġerr": 1848,
      "Ġsystem": 1849,
      "Ġbest": 1850,
      "code": 1851,
      "Ġsame": 1852,
      "Ġdi": 1853,
      "uss": 1854,
      "Ġcreate": 1855,
      "ather": 1856,
      "Array": 1857,
      ".in": 1858,
      "fe": 1859,
      "Service": 1860,
      "UN": 1861,
      "ats": 1862,
      "ĠZ": 1863,
      "alth": 1864,
      "Ġmade": 1865,
      "true": 1866,
      "AB": 1867,
      "Ġmark": 1868,
      "rid": 1869,
      "ified": 1870,
      ",čĊ": 1871,
      "yn": 1872,
      "press": 1873,
      "Ġgroup": 1874,
      "Ġfin": 1875,
      "ĠLicense": 1876,
      "Field": 1877,
      "eger": 1878,
      "Ġworld": 1879,
      "iness": 1880,
      "ty": 1881,
      "Ġprocess": 1882,
      "(b": 1883,
      "Ġcre": 1884,
      "arn": 1885,
      "ives": 1886,
      "Ġmain": 1887,
      "ideo": 1888,
      "_g": 1889,
      "AG": 1890,
      "valid": 1891,
      "img": 1892,
      "PI": 1893,
      "Ġcolor": 1894,
      "Ġreport": 1895,
      "Ġtake": 1896,
      "rib": 1897,
      "OM": 1898,
      "Ġday": 1899,
      "Request": 1900,
      "Ġsk": 1901,
      "bers": 1902,
      "ĉs": 1903,
      ".Add": 1904,
      "oot": 1905,
      "Image": 1906,
      "Ġcomple": 1907,
      "ollection": 1908,
      "Ġtop": 1909,
      "Ġfree": 1910,
      "AS": 1911,
      "De": 1912,
      "ĠOn": 1913,
      "IG": 1914,
      "eta": 1915,
      "Date": 1916,
      "Ġaction": 1917,
      "Over": 1918,
      "itor": 1919,
      "ĠĠĠĠĠĠĠĠĠĠĠĠĠĠĠĠĠĠĠĠĠĠĠĠĠĠĠĠĠĠĠĠĠĠĠ": 1920,
      "not": 1921,
      "Ġindex": 1922,
      "her": 1923,
      "icon": 1924,
      "On": 1925,
      ";čĊčĊ": 1926,
      "ivity": 1927,
      "mand": 1928,
      ".Windows": 1929,
      "OL": 1930,
      "Ġreal": 1931,
      "Ġmax": 1932,
      "land": 1933,
      "....": 1934,
      "raph": 1935,
      "Ġbuild": 1936,
      "leg": 1937,
      "assword": 1938,
      "?ĊĊ": 1939,
      "âĢ¦": 1940,
      "ook": 1941,
      "uck": 1942,
      "Ġmessage": 1943,
      "test": 1944,
      "ivers": 1945,
      "Ġinput": 1946,
      "Ġart": 1947,
      "Ġbetween": 1948,
      "Get": 1949,
      "enter": 1950,
      "ground": 1951,
      "ene": 1952,
      "Ã¡": 1953,
      ".length": 1954,
      "Node": 1955,
      "(i": 1956,
      "Class": 1957,
      "for": 1958,
      "ĠâĢĶ": 1959,
      "ten": 1960,
      "oin": 1961,
      "Ġke": 1962,
      "ui": 1963,
      "ĠIN": 1964,
      "Ġtable": 1965,
      "sub": 1966,
      "ĠLe": 1967,
      "Ġhead": 1968,
      "Ġmust": 1969,
      "////////////////": 1970,
      ".util": 1971,
      "Context": 1972,
      "Ġorder": 1973,
      "Ġmov": 1974,
      "over": 1975,
      "Ġcontin": 1976,
      "Ġsay": 1977,
      "static": 1978,
      ".Text": 1979,
      "ĠclassName": 1980,
      "pany": 1981,
      "Ġter": 1982,
      "head": 1983,
      "rg": 1984,
      "Ġproduct": 1985,
      "This": 1986,
      ".âĢĿ": 1987,
      "ĠBut": 1988,
      "loy": 1989,
      "Ġdouble": 1990,
      "sg": 1991,
      "Ġplace": 1992,
      ".x": 1993,
      "message": 1994,
      "Ġinformation": 1995,
      "private": 1996,
      "Ġoper": 1997,
      "ced": 1998,
      "db": 1999,
      "\"></": 2000,
      "Param": 2001,
      "icle": 2002,
      "Ġweek": 2003,
      "Ġprop": 2004,
      "table": 2005,
      "idget": 2006,
      "place": 2007,
      "Prop": 2008,
      "ĠAll": 2009,
      "els": 2010,
      "box": 2011,
      ".ĊĊĊĊ": 2012,
      ".R": 2013,
      "ĠTo": 2014,
      "iter": 2015,
      "Sh": 2016,
      "uration": 2017,
      "older": 2018,
      "_list": 2019,
      "come": 2020,
      "Ġsw": 2021,
      "ization": 2022,
      "ĉfor": 2023,
      "bl": 2024,
      "Ġprogram": 2025,
      "(e": 2026,
      "ape": 2027,
      "check": 2028,
      ".Forms": 2029,
      "Ġund": 2030,
      "ategory": 2031,
      "ags": 2032,
      "Ġresponse": 2033,
      "US": 2034,
      "request": 2035,
      "Ġstruct": 2036,
      "escription": 2037,
      "Ġcode": 2038,
      "_H": 2039,
      "uffer": 2040,
      "Ġwithout": 2041,
      "lobal": 2042,
      "Manager": 2043,
      "ilter": 2044,
      "PO": 2045,
      "ĉthis": 2046,
      "option": 2047,
      "Ġsol": 2048,
      "Ġ===": 2049,
      "akes": 2050,
      "Controller": 2051,
      "Message": 2052,
      "Ġref": 2053,
      "ever": 2054,
      "ĠSo": 2055,
      "aining": 2056,
      ".append": 2057,
      "Ġstill": 2058,
      "Ġprovid": 2059,
      "Ġassert": 2060,
      "med": 2061,
      "Ġcap": 2062,
      "usiness": 2063,
      "Ġrep": 2064,
      "tings": 2065,
      "ved": 2066,
      ".N": 2067,
      "api": 2068,
      "OD": 2069,
      "Ġfield": 2070,
      "iven": 2071,
      "oto": 2072,
      "âĢľ": 2073,
      "col": 2074,
      "(x": 2075,
      "ght": 2076,
      "Result": 2077,
      "Code": 2078,
      ".is": 2079,
      "link": 2080,
      "Ġcour": 2081,
      "An": 2082,
      "Ġteam": 2083,
      "ĉint": 2084,
      "ift": 2085,
      "Ġsecond": 2086,
      "Ġgoing": 2087,
      "Ġrange": 2088,
      "_E": 2089,
      "ness": 2090,
      "Ġfam": 2091,
      "Ġnil": 2092,
      "ĠCont": 2093,
      "ailable": 2094,
      "utes": 2095,
      "atab": 2096,
      "Ġfact": 2097,
      "Ġvis": 2098,
      "(&": 2099,
      "ĠAN": 2100,
      "Al": 2101,
      "title": 2102,
      "Ġandroid": 2103,
      "CE": 2104,
      "\\\"": 2105,
      "irt": 2106,
      "Ġwrit": 2107,
      "Ð½": 2108,
      "ĉm": 2109,
      "ftware": 2110,
      "ond": 2111,
      "Ġret": 2112,
      "osition": 2113,
      "Ġhome": 2114,
      "Ġleft": 2115,
      "args": 2116,
      "meric": 2117,
      "Ġdirect": 2118,
      "oci": 2119,
      "Pl": 2120,
      "As": 2121,
      "ret": 2122,
      "ado": 2123,
      "Of": 2124,
      "chn": 2125,
      "ĠGet": 2126,
      "ee": 2127,
      "ross": 2128,
      "();": 2129,
      "____": 2130,
      ".ph": 2131,
      "It": 2132,
      "oute": 2133,
      "Ġexper": 2134,
      "chool": 2135,
      "www": 2136,
      "},": 2137,
      "Ġallow": 2138,
      "ĠÂ": 2139,
      "())": 2140,
      "size": 2141,
      "ism": 2142,
      "ai": 2143,
      "tract": 2144,
      "ane": 2145,
      "...ĊĊ": 2146,
      "context": 2147,
      "Ġbeg": 2148,
      "CH": 2149,
      "Ġpage": 2150,
      "hip": 2151,
      "no": 2152,
      "core": 2153,
      "sp": 2154,
      "Ġdifferent": 2155,
      "iable": 2156,
      "ĠMe": 2157,
      "_IN": 2158,
      "button": 2159,
      "ĠIs": 2160,
      "ervices": 2161,
      "Ġca": 2162,
      "Ġaround": 2163,
      "App": 2164,
      "ration": 2165,
      "Ġrece": 2166,
      "Ġreally": 2167,
      "Ġimage": 2168,
      "Ġtarget": 2169,
      "Ġdep": 2170,
      "opyright": 2171,
      "tra": 2172,
      "ingle": 2173,
      "ital": 2174,
      "Layout": 2175,
      "Ġboth": 2176,
      "Override": 2177,
      "arm": 2178,
      "=>": 2179,
      "aterial": 2180,
      "iled": 2181,
      "Ġput": 2182,
      "Qu": 2183,
      "ÑĢ": 2184,
      "ung": 2185,
      "map": 2186,
      "ĉĉĉĉĉĉĉĉ": 2187,
      "Ġlevel": 2188,
      "Component": 2189,
      "book": 2190,
      "creen": 2191,
      "_RE": 2192,
      "Ġconfig": 2193,
      "ãģ": 2194,
      "Or": 2195,
      ".data": 2196,
      "Ġdocument": 2197,
      "\",\"": 2198,
      "tribute": 2199,
      "ux": 2200,
      "Log": 2201,
      "ference": 2202,
      "post": 2203,
      "_e": 2204,
      "Ġlocal": 2205,
      "andom": 2206,
      "assert": 2207,
      "Val": 2208,
      "lected": 2209,
      "ina": 2210,
      "atabase": 2211,
      "Add": 2212,
      "Ġcontent": 2213,
      ".print": 2214,
      "signed": 2215,
      "ric": 2216,
      ".\"ĊĊ": 2217,
      "Ġfa": 2218,
      "!ĊĊ": 2219,
      "-f": 2220,
      "ived": 2221,
      "Ġquest": 2222,
      ".ex": 2223,
      "Ġfloat": 2224,
      "Ġdevelop": 2225,
      "Ð¾Ð": 2226,
      "Map": 2227,
      "ading": 2228,
      "Ġposs": 2229,
      "UE": 2230,
      "namespace": 2231,
      "_O": 2232,
      "ĉb": 2233,
      ".Get": 2234,
      ">(": 2235,
      "json": 2236,
      "etails": 2237,
      "Ġtoo": 2238,
      "Ġextends": 2239,
      "ĠNone": 2240,
      "Ġfore": 2241,
      "(String": 2242,
      "format": 2243,
      "Ġgreat": 2244,
      "inter": 2245,
      "cale": 2246,
      "Ñģ": 2247,
      "ron": 2248,
      "iving": 2249,
      "Ent": 2250,
      "ency": 2251,
      "xt": 2252,
      "oy": 2253,
      "Ġmonth": 2254,
      "Ġhapp": 2255,
      "Ġsuper": 2256,
      "bar": 2257,
      "default": 2258,
      "_de": 2259,
      "ords": 2260,
      "ln": 2261,
      "({Ċ": 2262,
      "ĠInd": 2263,
      "ases": 2264,
      "Ġtitle": 2265,
      "Ġcontext": 2266,
      "oh": 2267,
      "-p": 2268,
      "Em": 2269,
      "Ġmet": 2270,
      "Test": 2271,
      "Ġlife": 2272,
      "_v": 2273,
      "ĠUS": 2274,
      "UI": 2275,
      "ocation": 2276,
      "md": 2277,
      "Ġ[Ċ": 2278,
      "Ġ]": 2279,
      "sw": 2280,
      "Ġincre": 2281,
      "script": 2282,
      "ential": 2283,
      "ways": 2284,
      ".de": 2285,
      "Ġsrc": 2286,
      "Ġcatch": 2287,
      "ĠAmeric": 2288,
      "//Ċ": 2289,
      "ĠĠĠĠĠĠĠĠĠĠĠĠĠĠ": 2290,
      "Ġpay": 2291,
      "plit": 2292,
      "âĢĶ": 2293,
      "Ġcoun": 2294,
      "obj": 2295,
      ".php": 2296,
      "Ġchange": 2297,
      "ething": 2298,
      "'re": 2299,
      "aster": 2300,
      "los": 2301,
      "lation": 2302,
      "ĠĠĊ": 2303,
      "Le": 2304,
      "Ã¤": 2305,
      "({": 2306,
      "ready": 2307,
      "ĠNo": 2308,
      "Ġposition": 2309,
      "Ġold": 2310,
      "Ġbook": 2311,
      "abled": 2312,
      "bug": 2313,
      "Hand": 2314,
      "};ĊĊ": 2315,
      "isplay": 2316,
      "aving": 2317,
      "Ġgover": 2318,
      "Ġversion": 2319,
      "System": 2320,
      "nect": 2321,
      "response": 2322,
      "Style": 2323,
      "Up": 2324,
      "angu": 2325,
      "Ġthree": 2326,
      "init": 2327,
      "ero": 2328,
      "Ġlaw": 2329,
      "endif": 2330,
      "Ġbase": 2331,
      "email": 2332,
      "(l": 2333,
      "_V": 2334,
      "Ġconf": 2335,
      "ATE": 2336,
      "Ġduring": 2337,
      "tes": 2338,
      "Ġconsole": 2339,
      "ĠPr": 2340,
      "Ġspe": 2341,
      "ves": 2342,
      "path": 2343,
      "ialog": 2344,
      "dition": 2345,
      "_to": 2346,
      "ards": 2347,
      "Ġagainst": 2348,
      "etwork": 2349,
      "ĠPh": 2350,
      "_L": 2351,
      "cur": 2352,
      "imit": 2353,
      "With": 2354,
      "Ġpower": 2355,
      "ium": 2356,
      "';ĊĊ": 2357,
      "Ġwom": 2358,
      "left": 2359,
      "ources": 2360,
      "atri": 2361,
      "ĠIm": 2362,
      "ĠMan": 2363,
      "orth": 2364,
      "${": 2365,
      "quals": 2366,
      "ese": 2367,
      "_size": 2368,
      "Ġiss": 2369,
      "otal": 2370,
      "-g": 2371,
      "ique": 2372,
      "rame": 2373,
      "Ġwidth": 2374,
      "erg": 2375,
      ")(": 2376,
      "ittle": 2377,
      "TR": 2378,
      "ĠThey": 2379,
      "ences": 2380,
      "rl": 2381,
      "ons": 2382,
      "Ġlabel": 2383,
      ".y": 2384,
      "-t": 2385,
      "update": 2386,
      "anel": 2387,
      "sc": 2388,
      ".to": 2389,
      "Ġproject": 2390,
      "Ã¼": 2391,
      "Ġelement": 2392,
      "Ġsuccess": 2393,
      "ĉĉĊ": 2394,
      ".sh": 2395,
      "ram": 2396,
      "ched": 2397,
      "())Ċ": 2398,
      "Ġ(Ċ": 2399,
      "Ġdate": 2400,
      "Ġtot": 2401,
      "_ST": 2402,
      "All": 2403,
      "ification": 2404,
      "ĉvar": 2405,
      "Ġtri": 2406,
      "chem": 2407,
      "my": 2408,
      "Ġbig": 2409,
      "ĠAd": 2410,
      "ĠAt": 2411,
      "ots": 2412,
      "num": 2413,
      "Act": 2414,
      "Ġmap": 2415,
      "era": 2416,
      "cope": 2417,
      ".$": 2418,
      ",âĢĿ": 2419,
      "Ġpop": 2420,
      "Ġfew": 2421,
      "Ġlen": 2422,
      "uid": 2423,
      "eters": 2424,
      "ules": 2425,
      "ÃŃ": 2426,
      "source": 2427,
      "https": 2428,
      "Ġdem": 2429,
      "Ġear": 2430,
      "################": 2431,
      "Ġmatch": 2432,
      "ories": 2433,
      "aces": 2434,
      "ĠCl": 2435,
      "Ġnode": 2436,
      "irc": 2437,
      "local": 2438,
      "unity": 2439,
      "};Ċ": 2440,
      "Ġanother": 2441,
      "<<": 2442,
      "ogle": 2443,
      "Ġsit": 2444,
      "ework": 2445,
      "TE": 2446,
      ".I": 2447,
      "NS": 2448,
      "ology": 2449,
      "ought": 2450,
      ".Cont": 2451,
      ">>": 2452,
      "Ġcare": 2453,
      "state": 2454,
      "ĉprivate": 2455,
      "Ġeffect": 2456,
      "++)": 2457,
      "_file": 2458,
      "ending": 2459,
      "Line": 2460,
      "For": 2461,
      "ior": 2462,
      "ĠSc": 2463,
      "Ġfun": 2464,
      ".Size": 2465,
      "ĉelse": 2466,
      "])": 2467,
      "start": 2468,
      "vious": 2469,
      "Ġ},": 2470,
      "ours": 2471,
      "Ġleg": 2472,
      "Ġservice": 2473,
      "Ġsince": 2474,
      "iron": 2475,
      "Label": 2476,
      "Ġnon": 2477,
      "Ġlos": 2478,
      "iction": 2479,
      "Ġfull": 2480,
      "acter": 2481,
      "board": 2482,
      "gress": 2483,
      "Ġturn": 2484,
      "ither": 2485,
      ".size": 2486,
      "Ġbody": 2487,
      "resh": 2488,
      "eturn": 2489,
      "(_": 2490,
      "yles": 2491,
      "ormal": 2492,
      "pi": 2493,
      "Ġsomething": 2494,
      "!--": 2495,
      "uint": 2496,
      "Ġprodu": 2497,
      "Ġstand": 2498,
      "Ġproble": 2499,
      "Ġavailable": 2500,
      "mt": 2501,
      "ĠBl": 2502,
      "Ġ...": 2503,
      "Ġblock": 2504,
      "Input": 2505,
      "Ġkeep": 2506,
      "Count": 2507,
      "open": 2508,
      "Ġ['": 2509,
      "Ġthrow": 2510,
      "uilder": 2511,
      "Action": 2512,
      "Ġthings": 2513,
      "True": 2514,
      "Ġurl": 2515,
      "ĠBo": 2516,
      "printf": 2517,
      "Ġred": 2518,
      "js": 2519,
      ".create": 2520,
      "ĠOr": 2521,
      "Status": 2522,
      "Instance": 2523,
      "Ġcontrol": 2524,
      "Ġcome": 2525,
      "Ġcustom": 2526,
      "location": 2527,
      "model": 2528,
      "ĠčĊ": 2529,
      "Ġsource": 2530,
      "Ġeas": 2531,
      ".out": 2532,
      "]ĊĊ": 2533,
      "oney": 2534,
      "Ġawait": 2535,
      "Ġpartic": 2536,
      "AP": 2537,
      "ublish": 2538,
      "odes": 2539,
      "_pro": 2540,
      "ply": 2541,
      "riter": 2542,
      "Ġprov": 2543,
      "Ġmill": 2544,
      "HT": 2545,
      "])Ċ": 2546,
      "Ġchang": 2547,
      "Ġask": 2548,
      "ĠĠĠĠĠĠĠĠĠĠĠĠĠĠĠĠĠĠĠĠĠ": 2549,
      "Ġoutput": 2550,
      "Ġemail": 2551,
      ".push": 2552,
      "Ġ}čĊčĊ": 2553,
      "ination": 2554,
      "atrix": 2555,
      "Table": 2556,
      "uccess": 2557,
      "]);Ċ": 2558,
      "ĠĠĠĠĠĠĠĠĠĠĠĠĠĠĠĠĠĠĠĠĠĠĠĠĠĠĠĠĠĠĠĠĠĠĠĠĠĠĠ": 2559,
      "Ġdisc": 2560,
      "([": 2561,
      "Ġbusiness": 2562,
      "height": 2563,
      ".html": 2564,
      "ta": 2565,
      "field": 2566,
      "Ġrequired": 2567,
      "_R": 2568,
      "Ġgovern": 2569,
      "}čĊčĊ": 2570,
      "lex": 2571,
      ".,": 2572,
      "ĠSet": 2573,
      "urch": 2574,
      "///": 2575,
      "ts": 2576,
      "af": 2577,
      "Ġmight": 2578,
      "istory": 2579,
      "Str": 2580,
      "Ġnever": 2581,
      "Response": 2582,
      "arse": 2583,
      "ada": 2584,
      "ĠHow": 2585,
      "Ġ*)": 2586,
      "Ġ;": 2587,
      "Ġhard": 2588,
      "Ad": 2589,
      "Ġintern": 2590,
      "used": 2591,
      "(data": 2592,
      "mod": 2593,
      "annel": 2594,
      "Ġnp": 2595,
      "ugg": 2596,
      "Ġ/>Ċ": 2597,
      "Ġcalled": 2598,
      "body": 2599,
      "Ġcho": 2600,
      "(r": 2601,
      "_set": 2602,
      "ird": 2603,
      "Ġ>=": 2604,
      "Ġ};Ċ": 2605,
      "Ġoptions": 2606,
      "ĠGener": 2607,
      "Ġheight": 2608,
      "Point": 2609,
      "You": 2610,
      "ety": 2611,
      "Click": 2612,
      "Ġsmall": 2613,
      "Ġide": 2614,
      "Ġaccess": 2615,
      "anguage": 2616,
      "Ġprotected": 2617,
      "Ġjob": 2618,
      "ĠThere": 2619,
      "Def": 2620,
      "Ġaddress": 2621,
      "Ġuint": 2622,
      "Not": 2623,
      "oo": 2624,
      "aps": 2625,
      "<div": 2626,
      "ained": 2627,
      "atur": 2628,
      "Ġsum": 2629,
      "-w": 2630,
      "ĠDate": 2631,
      "Ġlittle": 2632,
      "Ġfri": 2633,
      "YPE": 2634,
      "Ġport": 2635,
      "eh": 2636,
      "pring": 2637,
      "_path": 2638,
      "Ġstatus": 2639,
      "aim": 2640,
      "bool": 2641,
      "Ġappe": 2642,
      "Ġos": 2643,
      ".name": 2644,
      "ension": 2645,
      "_G": 2646,
      "Ġupdate": 2647,
      "Config": 2648,
      "aff": 2649,
      "ERR": 2650,
      "Ġ<=": 2651,
      "ately": 2652,
      "#if": 2653,
      "uction": 2654,
      "ĠTe": 2655,
      "Ġlink": 2656,
      "ĠUser": 2657,
      ".find": 2658,
      ".org": 2659,
      "me": 2660,
      "Ġgiven": 2661,
      "Out": 2662,
      "#endif": 2663,
      "Ġbetter": 2664,
      "Page": 2665,
      "Ġfeel": 2666,
      "enn": 2667,
      "ML": 2668,
      "Ġalready": 2669,
      "Ġincluding": 2670,
      "oogle": 2671,
      "ru": 2672,
      "ically": 2673,
      "prop": 2674,
      "lean": 2675,
      "outer": 2676,
      "Ġalways": 2677,
      "ording": 2678,
      "If": 2679,
      "orage": 2680,
      "Ġparent": 2681,
      "vis": 2682,
      "ĉĉĉĉĉĉĉ": 2683,
      "Ġgot": 2684,
      "stand": 2685,
      "Ġless": 2686,
      "/s": 2687,
      "ĠAss": 2688,
      "apt": 2689,
      "ired": 2690,
      "ĠAdd": 2691,
      "Ġaccount": 2692,
      "ploy": 2693,
      "Ġder": 2694,
      "resent": 2695,
      "Ġlot": 2696,
      "Ġvalid": 2697,
      "ĉd": 2698,
      "Ġbit": 2699,
      "ponents": 2700,
      "Ġfollowing": 2701,
      "_ex": 2702,
      "SON": 2703,
      "Ġsure": 2704,
      "ocial": 2705,
      "Ġprom": 2706,
      "erties": 2707,
      "header": 2708,
      ".pro": 2709,
      "Ġboolean": 2710,
      "Ġsearch": 2711,
      "ken": 2712,
      "Ġorig": 2713,
      "Ġer": 2714,
      "Ed": 2715,
      "EM": 2716,
      "aut": 2717,
      "ling": 2718,
      "ality": 2719,
      "ById": 2720,
      "bed": 2721,
      "ĉcase": 2722,
      "ether": 2723,
      "posit": 2724,
      "Ġinvest": 2725,
      "ĠOR": 2726,
      "Ġsays": 2727,
      "mission": 2728,
      "AME": 2729,
      "Ġtemp": 2730,
      "oad": 2731,
      "Ġrest": 2732,
      "info": 2733,
      "Ġinterest": 2734,
      "Arg": 2735,
      "Ġperform": 2736,
      "pons": 2737,
      "ĠView": 2738,
      "Ġver": 2739,
      "lib": 2740,
      "(const": 2741,
      "Util": 2742,
      "Listener": 2743,
      "arge": 2744,
      "Ġmult": 2745,
      "Ġdie": 2746,
      "Ġsite": 2747,
      "../../": 2748,
      "EL": 2749,
      "Ġvalues": 2750,
      "Ġ})Ċ": 2751,
      "pen": 2752,
      "No": 2753,
      "icro": 2754,
      "Ġbeh": 2755,
      "Ġ'./": 2756,
      "acy": 2757,
      "rec": 2758,
      "()->": 2759,
      "ĉĠĠĠ": 2760,
      "\"))": 2761,
      "Content": 2762,
      "_W": 2763,
      "plement": 2764,
      "Ġwon": 2765,
      "Ġvideo": 2766,
      "adi": 2767,
      "point": 2768,
      "%%": 2769,
      "Ġgl": 2770,
      "erved": 2771,
      "viron": 2772,
      "IF": 2773,
      "uted": 2774,
      "ãĥ": 2775,
      "'m": 2776,
      "Ġcert": 2777,
      "Ġprof": 2778,
      "Ġcell": 2779,
      "ari": 2780,
      "Ġplayer": 2781,
      "ais": 2782,
      "Ġcost": 2783,
      "Ġhum": 2784,
      "(R": 2785,
      "Ġoffic": 2786,
      "ks": 2787,
      ".text": 2788,
      "atures": 2789,
      "Ġtotal": 2790,
      "Ġ*/ĊĊ": 2791,
      "ope": 2792,
      "Ġstat": 2793,
      "UM": 2794,
      "Ġload": 2795,
      "ights": 2796,
      "Ġclear": 2797,
      "uro": 2798,
      "Ġtechn": 2799,
      "upport": 2800,
      "IR": 2801,
      "Ġrow": 2802,
      "Ġseem": 2803,
      "Ġq": 2804,
      "Ġshort": 2805,
      "ĠNot": 2806,
      "ipp": 2807,
      "Group": 2808,
      "section": 2809,
      "max": 2810,
      "irl": 2811,
      "Ġoverride": 2812,
      "Ġcompany": 2813,
      "Ġdone": 2814,
      "\");čĊ": 2815,
      "Ġgre": 2816,
      ".Re": 2817,
      "Ġbelie": 2818,
      "rist": 2819,
      "Ġhealth": 2820,
      "ANT": 2821,
      "()ĊĊ": 2822,
      "ĠBe": 2823,
      ".value": 2824,
      "ĠGr": 2825,
      "ottom": 2826,
      "Ġargs": 2827,
      "PT": 2828,
      "status": 2829,
      "func": 2830,
      "uments": 2831,
      "-h": 2832,
      "Number": 2833,
      ":čĊ": 2834,
      "ĠLog": 2835,
      "erver": 2836,
      "Ġ),Ċ": 2837,
      "ament": 2838,
      "Ġobj": 2839,
      "inc": 2840,
      "Ġchildren": 2841,
      "icy": 2842,
      "IZ": 2843,
      "ands": 2844,
      "ably": 2845,
      "Ġdistrib": 2846,
      "Ġcur": 2847,
      "erial": 2848,
      "Ġdays": 2849,
      "reated": 2850,
      "rect": 2851,
      "-l": 2852,
      "irm": 2853,
      "idden": 2854,
      "omb": 2855,
      "Ġinitial": 2856,
      ".js": 2857,
      "Ġâ": 2858,
      "Query": 2859,
      "Ġonline": 2860,
      "imal": 2861,
      ".con": 2862,
      "au": 2863,
      "Url": 2864,
      "control": 2865,
      "irection": 2866,
      "Ġinstance": 2867,
      "ORT": 2868,
      "ĠFr": 2869,
      "where": 2870,
      "Ġjavax": 2871,
      "Ġorgan": 2872,
      "apter": 2873,
      "Ġreason": 2874,
      "options": 2875,
      "ĠMar": 2876,
      "(a": 2877,
      "Ġwithin": 2878,
      ".âĢĿĊĊ": 2879,
      "ODE": 2880,
      "_DE": 2881,
      "admin": 2882,
      "ended": 2883,
      "Ġdesign": 2884,
      "ĠData": 2885,
      "une": 2886,
      "ĠFile": 2887,
      "root": 2888,
      "Ġcent": 2889,
      "Ġarr": 2890,
      "_add": 2891,
      "len": 2892,
      "page": 2893,
      ",'": 2894,
      "_str": 2895,
      "Ġbro": 2896,
      "ability": 2897,
      "outh": 2898,
      "/c": 2899,
      "pose": 2900,
      "irtual": 2901,
      "earch": 2902,
      "_url": 2903,
      "argin": 2904,
      "Http": 2905,
      "Ġschool": 2906,
      "ava": 2907,
      "Ġconsider": 2908,
      ".label": 2909,
      "ĠArray": 2910,
      "web": 2911,
      "opt": 2912,
      ".println": 2913,
      "ulation": 2914,
      "Ġfunc": 2915,
      "PL": 2916,
      "Ġ\"\\": 2917,
      "ĠText": 2918,
      "actory": 2919,
      "(function": 2920,
      "null": 2921,
      "Ġeng": 2922,
      "down": 2923,
      "Ġinclude": 2924,
      "ĠEn": 2925,
      "ĠDr": 2926,
      "Ġdb": 2927,
      "!!": 2928,
      "side": 2929,
      "Ġinit": 2930,
      "quired": 2931,
      "ĠShe": 2932,
      "Column": 2933,
      "react": 2934,
      "Ġann": 2935,
      "Ġstop": 2936,
      "Ġlater": 2937,
      "ĠThat": 2938,
      "ention": 2939,
      "df": 2940,
      "UG": 2941,
      "ILE": 2942,
      "Ġclient": 2943,
      "raft": 2944,
      "ffer": 2945,
      "POST": 2946,
      "elper": 2947,
      "Ġlove": 2948,
      "quote": 2949,
      "oud": 2950,
      "Ġjson": 2951,
      "Ġable": 2952,
      "Ġmen": 2953,
      "AX": 2954,
      "ĠCopyright": 2955,
      "Ã¶": 2956,
      "avig": 2957,
      "req": 2958,
      "Client": 2959,
      "});Ċ": 2960,
      ".Com": 2961,
      "erc": 2962,
      "ilt": 2963,
      "pecial": 2964,
      "_com": 2965,
      "room": 2966,
      ".Name": 2967,
      "Ġgive": 2968,
      "amb": 2969,
      "ike": 2970,
      "Ġcondition": 2971,
      "client": 2972,
      "ators": 2973,
      ":\"": 2974,
      "Ġcopy": 2975,
      "uture": 2976,
      "iversity": 2977,
      "ernal": 2978,
      "{{": 2979,
      "ĠCan": 2980,
      "ounc": 2981,
      "do": 2982,
      "Ġocc": 2983,
      "Ġappro": 2984,
      "thers": 2985,
      "ze": 2986,
      "Ġeither": 2987,
      "ĠFl": 2988,
      "Ġimportant": 2989,
      "Ġlead": 2990,
      "attr": 2991,
      "ART": 2992,
      "Equal": 2993,
      "Ġda": 2994,
      "etch": 2995,
      "entity": 2996,
      "Ġfamily": 2997,
      "adding": 2998,
      "Ġoption": 2999,
      "Ġexist": 3000,
      "ica": 3001,
      "ĠObject": 3002,
      "'ve": 3003,
      "vers": 3004,
      "itional": 3005,
      "output": 3006,
      "ĠTrue": 3007,
      "ĠOF": 3008,
      "_time": 3009,
      "Ġoffer": 3010,
      "Ġ});ĊĊ": 3011,
      "HER": 3012,
      "egin": 3013,
      "\"\"": 3014,
      "Ġwater": 3015,
      "Ġche": 3016,
      "ĠMy": 3017,
      "ored": 3018,
      "Ġstep": 3019,
      "ances": 3020,
      "CK": 3021,
      "AY": 3022,
      "à¸": 3023,
      "struction": 3024,
      "(C": 3025,
      "ouch": 3026,
      "Stream": 3027,
      "active": 3028,
      "ama": 3029,
      "Entity": 3030,
      "product": 3031,
      "(){Ċ": 3032,
      "Ġgovernment": 3033,
      "ĠID": 3034,
      "ajor": 3035,
      "And": 3036,
      "Ġdisplay": 3037,
      "Ð»": 3038,
      "Ġtimes": 3039,
      "Ġfour": 3040,
      "Ġfar": 3041,
      "Ġpresent": 3042,
      "ĠNS": 3043,
      "Ġ\\Ċ": 3044,
      "uest": 3045,
      "Ġbas": 3046,
      "echo": 3047,
      "child": 3048,
      "ifier": 3049,
      "Handler": 3050,
      "Ġlib": 3051,
      "Property": 3052,
      "translation": 3053,
      "Ġroom": 3054,
      "Ġonce": 3055,
      "Ġ[]": 3056,
      "center": 3057,
      "================================": 3058,
      "Ġresults": 3059,
      "Ġcontinue": 3060,
      "Ġtalk": 3061,
      "_get": 3062,
      "Ġgrow": 3063,
      ".sw": 3064,
      "eb": 3065,
      "ĠPublic": 3066,
      "OP": 3067,
      "ecute": 3068,
      "ols": 3069,
      "Ġ**": 3070,
      "\");ĊĊ": 3071,
      "Ġmass": 3072,
      "ured": 3073,
      ".class": 3074,
      "omic": 3075,
      "Ġmean": 3076,
      "ips": 3077,
      "Ġaut": 3078,
      ");čĊčĊ": 3079,
      "Ġuntil": 3080,
      "Ġmarket": 3081,
      "Ġarea": 3082,
      "uit": 3083,
      "Ġlength": 3084,
      "ĠWith": 3085,
      "structor": 3086,
      "event": 3087,
      "\"><": 3088,
      "ĠSp": 3089,
      "IV": 3090,
      "Ġmus": 3091,
      "iff": 3092,
      "Ġkind": 3093,
      "author": 3094,
      "ounds": 3095,
      "mb": 3096,
      "_key": 3097,
      "width": 3098,
      "pository": 3099,
      "Ġlight": 3100,
      "uk": 3101,
      "Row": 3102,
      "ohn": 3103,
      "alf": 3104,
      "vironment": 3105,
      "apper": 3106,
      "ollections": 3107,
      "Ġside": 3108,
      "_info": 3109,
      "Ġexample": 3110,
      "imary": 3111,
      "Ġwr": 3112,
      "Ġcamp": 3113,
      "cribe": 3114,
      "\"/": 3115,
      "Ġmiss": 3116,
      "way": 3117,
      "Ġbased": 3118,
      "Ġplan": 3119,
      "Vis": 3120,
      "omain": 3121,
      "unk": 3122,
      "Ġaway": 3123,
      "UP": 3124,
      "<T": 3125,
      "OS": 3126,
      "iod": 3127,
      "ĠMon": 3128,
      "âĢĻre": 3129,
      "Ġlik": 3130,
      "Ã§": 3131,
      "ively": 3132,
      ".v": 3133,
      "imer": 3134,
      "izer": 3135,
      "Sub": 3136,
      "Ġbutton": 3137,
      "ĠUp": 3138,
      "Ġexperience": 3139,
      "CL": 3140,
      "Ġrender": 3141,
      "_value": 3142,
      "Ġnear": 3143,
      "URL": 3144,
      "alt": 3145,
      "Ġcountry": 3146,
      "ibility": 3147,
      "(),Ċ": 3148,
      "ead": 3149,
      "Ġauthor": 3150,
      "Ġspecific": 3151,
      "base": 3152,
      "(name": 3153,
      "ones": 3154,
      "ĠDo": 3155,
      "Ġalong": 3156,
      "year": 3157,
      "Ġexpress": 3158,
      ".'": 3159,
      "env": 3160,
      "Ġbegin": 3161,
      "Ġsoftware": 3162,
      "Ġimp": 3163,
      "Ġwin": 3164,
      "Ã³n": 3165,
      "Ġthing": 3166,
      "Trans": 3167,
      "ĠTHE": 3168,
      "Ġ<?": 3169,
      "Ġwhy": 3170,
      "Ġdoesn": 3171,
      "ij": 3172,
      "ging": 3173,
      "ĉg": 3174,
      "Ġsingle": 3175,
      "offset": 3176,
      "arning": 3177,
      "ograph": 3178,
      "ley": 3179,
      "_count": 3180,
      "Ġanal": 3181,
      "create": 3182,
      "/m": 3183,
      "ĠReg": 3184,
      "unch": 3185,
      "=$": 3186,
      "isk": 3187,
      "Ġrights": 3188,
      "(M": 3189,
      "Ġ\"\"\"Ċ": 3190,
      "aper": 3191,
      ".model": 3192,
      "Ġpo": 3193,
      "empty": 3194,
      "artment": 3195,
      "Ġant": 3196,
      "ĠWhen": 3197,
      "Ġwomen": 3198,
      "ĠEd": 3199,
      "Ġseason": 3200,
      "Ġdest": 3201,
      "Ã£": 3202,
      "(h": 3203,
      "Ġpossible": 3204,
      "Ġsever": 3205,
      "Ġbtn": 3206,
      "Ġdidn": 3207,
      "Ġsent": 3208,
      "Ġenc": 3209,
      "Ġcommand": 3210,
      "Ġ],Ċ": 3211,
      "_x": 3212,
      "Ġrecent": 3213,
      "olution": 3214,
      "vector": 3215,
      "ĠBy": 3216,
      "ĠMay": 3217,
      "ĠAct": 3218,
      "»¿": 3219,
      "Ġmoney": 3220,
      "INT": 3221,
      "bsite": 3222,
      "ĉp": 3223,
      ".čĊ": 3224,
      "ï»¿": 3225,
      "sl": 3226,
      "attern": 3227,
      "ĠClass": 3228,
      "Ġtold": 3229,
      "udio": 3230,
      "current": 3231,
      "Ġequ": 3232,
      "Ġauto": 3233,
      "ĠState": 3234,
      "da": 3235,
      "msg": 3236,
      "));ĊĊ": 3237,
      "Ġworking": 3238,
      "Ġquery": 3239,
      "ĠBr": 3240,
      "Ġwindow": 3241,
      "auth": 3242,
      "only": 3243,
      "ĉt": 3244,
      "Ġleast": 3245,
      "agn": 3246,
      "Ġexpl": 3247,
      "itter": 3248,
      "aring": 3249,
      "Ġcolumn": 3250,
      "ĠGeneral": 3251,
      "\":\"": 3252,
      "eral": 3253,
      "rior": 3254,
      "Ġrecord": 3255,
      "IB": 3256,
      "EX": 3257,
      "Ġdat": 3258,
      "Ġmaking": 3259,
      "ued": 3260,
      "ĠCar": 3261,
      "emp": 3262,
      "\".": 3263,
      "ĠMed": 3264,
      "Ġclose": 3265,
      "Ġpercent": 3266,
      "Ġpast": 3267,
      "(g": 3268,
      ":(": 3269,
      "Ġwrite": 3270,
      "Ġmove": 3271,
      "Ġpat": 3272,
      "Control": 3273,
      ".To": 3274,
      "Ġvi": 3275,
      "*/Ċ": 3276,
      "inate": 3277,
      "'ll": 3278,
      "aged": 3279,
      "Null": 3280,
      "Ġspecial": 3281,
      "IZE": 3282,
      "Ġcity": 3283,
      "/*Ċ": 3284,
      "ĠEng": 3285,
      "ixed": 3286,
      "inary": 3287,
      "py": 3288,
      "Ġeff": 3289,
      "ario": 3290,
      "Ġtell": 3291,
      "avor": 3292,
      "Ġselect": 3293,
      "level": 3294,
      "imum": 3295,
      "oper": 3296,
      "Builder": 3297,
      "IP": 3298,
      "'),Ċ": 3299,
      "esc": 3300,
      "Ġfont": 3301,
      "\";ĊĊ": 3302,
      "ĠAm": 3303,
      "ished": 3304,
      "ills": 3305,
      "Inter": 3306,
      "OW": 3307,
      "Ġcourse": 3308,
      "Ġlate": 3309,
      "iddle": 3310,
      "Ġamount": 3311,
      "Ġasync": 3312,
      "ino": 3313,
      "cul": 3314,
      "Ġì": 3315,
      "andle": 3316,
      "_user": 3317,
      "Ġben": 3318,
      "ĠCal": 3319,
      "Ġ$_": 3320,
      "ĠRep": 3321,
      "Ġenough": 3322,
      "Token": 3323,
      ".user": 3324,
      "(j": 3325,
      "Sc": 3326,
      "Width": 3327,
      "now": 3328,
      "atform": 3329,
      "Ġlooking": 3330,
      "Ġhold": 3331,
      "Module": 3332,
      "ITY": 3333,
      "vo": 3334,
      "ison": 3335,
      ".Data": 3336,
      "yc": 3337,
      "Ġpot": 3338,
      "ĠTrump": 3339,
      "idual": 3340,
      "ides": 3341,
      "rt": 3342,
      "Ġproperty": 3343,
      "ĠĠĠĠĠĠĠĠĠĠĠĠĠĠĠĠĠĠĠĠĠĠĠĠĠĠĠĠĠĠĠĠĠĠĠĠĠĠĠĠĠĠĠ": 3344,
      "amework": 3345,
      "go": 3346,
      "Ġlow": 3347,
      "Ġpara": 3348,
      "Ġprice": 3349,
      "ury": 3350,
      "Ġtoday": 3351,
      "roy": 3352,
      "Ġ'/": 3353,
      "Ġpolit": 3354,
      "Ġ''": 3355,
      "ymb": 3356,
      "Ph": 3357,
      "Ġadv": 3358,
      "Ġattack": 3359,
      "ĠSte": 3360,
      "ROM": 3361,
      "ana": 3362,
      "Ġmeans": 3363,
      "Ġstory": 3364,
      "ids": 3365,
      "aken": 3366,
      "Ġmeet": 3367,
      "Ġmom": 3368,
      "ĠâĢĺ": 3369,
      "Ġ?>": 3370,
      "Ġden": 3371,
      "obile": 3372,
      "change": 3373,
      "ĠĠĠĠĠĠĠĠĠĠĠĠĊ": 3374,
      "ici": 3375,
      "na": 3376,
      "ĠForm": 3377,
      "Ġsort": 3378,
      "Select": 3379,
      "pare": 3380,
      "Ġthought": 3381,
      "_con": 3382,
      "Ġtask": 3383,
      "ocus": 3384,
      "ĠDE": 3385,
      "ĠMin": 3386,
      "Ġopt": 3387,
      "ĉbreak": 3388,
      "umer": 3389,
      "KE": 3390,
      "then": 3391,
      "Ġdet": 3392,
      "ĠTest": 3393,
      "ports": 3394,
      "Ġreview": 3395,
      "('/": 3396,
      "move": 3397,
      "Ġswitch": 3398,
      "ERT": 3399,
      "patch": 3400,
      "annot": 3401,
      "ãĤ": 3402,
      "Ġabove": 3403,
      "itive": 3404,
      "Ġquestion": 3405,
      "ĠQu": 3406,
      "ãĢĤĊĊ": 3407,
      "gle": 3408,
      "Ġword": 3409,
      "Ġprovide": 3410,
      "ĠReturn": 3411,
      "Ġresearch": 3412,
      "Ã£o": 3413,
      "ustr": 3414,
      "Ġpublish": 3415,
      "chema": 3416,
      "}}": 3417,
      "ĠCON": 3418,
      "-in": 3419,
      "allback": 3420,
      "Ġcover": 3421,
      "\\\\": 3422,
      "color": 3423,
      "ĠIS": 3424,
      "Ġwhether": 3425,
      "imate": 3426,
      "isc": 3427,
      "Bar": 3428,
      "Ġdiv": 3429,
      "Be": 3430,
      "ourn": 3431,
      "Ġhaving": 3432,
      "lem": 3433,
      "player": 3434,
      "abs": 3435,
      "amera": 3436,
      "ney": 3437,
      "Ġexc": 3438,
      "gether": 3439,
      "plied": 3440,
      "ao": 3441,
      "[$": 3442,
      "Ġ++": 3443,
      "ipe": 3444,
      "show": 3445,
      "/d": 3446,
      "[:": 3447,
      "agement": 3448,
      "lev": 3449,
      "_ID": 3450,
      "rary": 3451,
      "ades": 3452,
      "_se": 3453,
      "ause": 3454,
      "Ġemploy": 3455,
      "Ġ*/čĊ": 3456,
      "Ġfre": 3457,
      "Ġ'@": 3458,
      "Ġcomplet": 3459,
      "Ġlarge": 3460,
      "ral": 3461,
      "\\x": 3462,
      "Ġfac": 3463,
      "<String": 3464,
      "Ġcreated": 3465,
      "uper": 3466,
      ".state": 3467,
      "Ġhost": 3468,
      "eneric": 3469,
      "/b": 3470,
      "(!": 3471,
      "while": 3472,
      "ias": 3473,
      "BUG": 3474,
      "Ġ);ĊĊ": 3475,
      "Ġrole": 3476,
      "Reg": 3477,
      "ĠColor": 3478,
      "Start": 3479,
      "Ġporn": 3480,
      "top": 3481,
      "Ġweb": 3482,
      "Ġdev": 3483,
      "Ġdeal": 3484,
      "++)Ċ": 3485,
      "Integer": 3486,
      "position": 3487,
      ".on": 3488,
      "Ġ(\"": 3489,
      "ä¸": 3490,
      "Ġproblem": 3491,
      "sv": 3492,
      "Ġpress": 3493,
      "ABLE": 3494,
      "ATION": 3495,
      "ĠSee": 3496,
      "anch": 3497,
      "Ġthough": 3498,
      "leep": 3499,
      "Ġ<!--": 3500,
      "Ġpoints": 3501,
      "ĠĠĠĠĠĠĠĠĠĠĠĠĠĠĠĠĠĠĠĠĠĠĠĠĠ": 3502,
      ".J": 3503,
      "Ġ::": 3504,
      "ptr": 3505,
      "DB": 3506,
      "++;Ċ": 3507,
      ".png": 3508,
      "node": 3509,
      "soft": 3510,
      "pond": 3511,
      "Ġever": 3512,
      "----------------------------------------------------------------": 3513,
      "Menu": 3514,
      "('#": 3515,
      "Ġservices": 3516,
      "pg": 3517,
      "})Ċ": 3518,
      "params": 3519,
      "Ġactually": 3520,
      "Ġ\"/": 3521,
      "Empty": 3522,
      "Method": 3523,
      "Ġident": 3524,
      "unic": 3525,
      "Ġmillion": 3526,
      "Ġaff": 3527,
      "style": 3528,
      "Ġconc": 3529,
      "ios": 3530,
      "ignment": 3531,
      "ULT": 3532,
      "Pr": 3533,
      "\";čĊ": 3534,
      "Ġunderstand": 3535,
      "uary": 3536,
      "Ġhappen": 3537,
      "Ġserver": 3538,
      "ĠCo": 3539,
      "SC": 3540,
      "Ġles": 3541,
      "Ġfiles": 3542,
      "Grid": 3543,
      "sql": 3544,
      "Ġoften": 3545,
      "Ġinfo": 3546,
      "_tr": 3547,
      "src": 3548,
      "ony": 3549,
      "Ġspace": 3550,
      "umb": 3551,
      "Ġpassword": 3552,
      "Ġstore": 3553,
      ",ĊĊ": 3554,
      "ĠWhat": 3555,
      "ged": 3556,
      "ĠFalse": 3557,
      "Us": 3558,
      "swer": 3559,
      "_index": 3560,
      "Ġformat": 3561,
      "most": 3562,
      "sm": 3563,
      "New": 3564,
      "Ġdetails": 3565,
      "Ġprob": 3566,
      "ĠAND": 3567,
      "()čĊ": 3568,
      "ilar": 3569,
      "Ġ${": 3570,
      "rypt": 3571,
      ".Collections": 3572,
      "$this": 3573,
      "ĠFree": 3574,
      "_of": 3575,
      "(false": 3576,
      "dated": 3577,
      "Ġ>>": 3578,
      "Ġface": 3579,
      "CTION": 3580,
      "Ġsave": 3581,
      "Ġtyp": 3582,
      "dev": 3583,
      "(\"#": 3584,
      "AGE": 3585,
      "container": 3586,
      "edit": 3587,
      "QL": 3588,
      "Ġitems": 3589,
      "Ġsocial": 3590,
      "ien": 3591,
      "ĠReact": 3592,
      ").ĊĊ": 3593,
      "Ġmar": 3594,
      "Ġredu": 3595,
      "ĠRE": 3596,
      ".put": 3597,
      "Ġmajor": 3598,
      "Cell": 3599,
      "next": 3600,
      "Ġexpected": 3601,
      "Ġyet": 3602,
      "Ġindiv": 3603,
      "tributes": 3604,
      "atis": 3605,
      "amed": 3606,
      "Ġfood": 3607,
      "Source": 3608,
      "(string": 3609,
      "Ġ+Ċ": 3610,
      "ites": 3611,
      "dr": 3612,
      "Ġmembers": 3613,
      "Ġcomb": 3614,
      "items": 3615,
      "ĠPer": 3616,
      "TH": 3617,
      "=True": 3618,
      "Ġbar": 3619,
      "_SE": 3620,
      "comm": 3621,
      "(w": 3622,
      ")ĊĊĊ": 3623,
      "Ġsend": 3624,
      "Ġinc": 3625,
      "unsigned": 3626,
      "FA": 3627,
      "Ġparams": 3628,
      "apping": 3629,
      "ros": 3630,
      "ugin": 3631,
      "fa": 3632,
      "Ġconnection": 3633,
      "Ġ};ĊĊ": 3634,
      "Ġbecome": 3635,
      "Mode": 3636,
      "Ġev": 3637,
      "Ġdiff": 3638,
      "ĠUnited": 3639,
      "Height": 3640,
      "fully": 3641,
      "images": 3642,
      "Ġmakes": 3643,
      "Ġglobal": 3644,
      "Ġcontact": 3645,
      "':Ċ": 3646,
      "Ġabs": 3647,
      "Ð°Ð": 3648,
      "float": 3649,
      "Ġexcept": 3650,
      "ĠPol": 3651,
      "Child": 3652,
      "typ": 3653,
      "Ġcertain": 3654,
      "iÃ³n": 3655,
      "OUT": 3656,
      "Ġimpro": 3657,
      "iles": 3658,
      "Ġ-->Ċ": 3659,
      "ĠPart": 3660,
      "values": 3661,
      "oss": 3662,
      "/**": 3663,
      "ilit": 3664,
      "ĠEvent": 3665,
      "curity": 3666,
      "ster": 3667,
      "Ġcharacter": 3668,
      "Ġnews": 3669,
      "Ġ\",": 3670,
      "Ġdevice": 3671,
      "cel": 3672,
      "login": 3673,
      "heet": 3674,
      "Default": 3675,
      "@\"": 3676,
      "ĉĠ": 3677,
      "click": 3678,
      "(value": 3679,
      "ĠAb": 3680,
      "Ġprevious": 3681,
      "ERROR": 3682,
      "ocal": 3683,
      "Ġmaterial": 3684,
      "Ġbelow": 3685,
      "ĠChrist": 3686,
      "Ġmedia": 3687,
      "cover": 3688,
      "ĠUI": 3689,
      "Ġfail": 3690,
      "Ġblack": 3691,
      "Ġcomponent": 3692,
      "ĠAmerican": 3693,
      "Ġadded": 3694,
      "Ġbuy": 3695,
      "stit": 3696,
      "Ġcame": 3697,
      "Ġdelete": 3698,
      "property": 3699,
      "oding": 3700,
      "Ġcard": 3701,
      "rops": 3702,
      "Ġhttps": 3703,
      "Ġroot": 3704,
      "Ġhandle": 3705,
      "CC": 3706,
      "Back": 3707,
      "emplate": 3708,
      "Ġgetting": 3709,
      "_by": 3710,
      "mail": 3711,
      "_sh": 3712,
      ".assert": 3713,
      "ĠDec": 3714,
      "(true": 3715,
      "Ġcomput": 3716,
      "Ġclaim": 3717,
      "'=>": 3718,
      "ĠSub": 3719,
      "Ġair": 3720,
      "ops": 3721,
      "nav": 3722,
      "ements": 3723,
      "(id": 3724,
      "Ġenter": 3725,
      "anged": 3726,
      "End": 3727,
      "Ġlocation": 3728,
      "Ġnight": 3729,
      "Ġdoing": 3730,
      "ĠRed": 3731,
      "lin": 3732,
      "}ĊĊĊ": 3733,
      "vider": 3734,
      "Ġpick": 3735,
      "Ġwatch": 3736,
      "essages": 3737,
      "Ġhuman": 3738,
      "Ġdam": 3739,
      "pend": 3740,
      "dir": 3741,
      "Ġtax": 3742,
      "Ġgirl": 3743,
      "reet": 3744,
      "Ġbox": 3745,
      "Ġstrong": 3746,
      "(v": 3747,
      "rel": 3748,
      "Ġinterface": 3749,
      "Ġmsg": 3750,
      "fect": 3751,
      "_at": 3752,
      "Ġhouse": 3753,
      "Ġtrack": 3754,
      "');ĊĊ": 3755,
      "je": 3756,
      "ĠJohn": 3757,
      "istr": 3758,
      "(S": 3759,
      "ube": 3760,
      "Ġce": 3761,
      "itted": 3762,
      "VER": 3763,
      "*)": 3764,
      "parent": 3765,
      "Ġapplication": 3766,
      "any": 3767,
      ".swing": 3768,
      "Ġpack": 3769,
      "\\u": 3770,
      "Ġpract": 3771,
      "Ġsection": 3772,
      "ctx": 3773,
      "Ġunsigned": 3774,
      ".Point": 3775,
      "ĠOne": 3776,
      "Ä±": 3777,
      "iple": 3778,
      "aid": 3779,
      "Ñĥ": 3780,
      "Vector": 3781,
      "byte": 3782,
      "Ġwait": 3783,
      "ĠÃł": 3784,
      "Ã¥": 3785,
      "Ġtogether": 3786,
      "Ġthrows": 3787,
      "FO": 3788,
      "'))": 3789,
      "host": 3790,
      "ising": 3791,
      ".view": 3792,
      "Ġterms": 3793,
      "framework": 3794,
      "-r": 3795,
      "Ġapply": 3796,
      "Ġsession": 3797,
      "Options": 3798,
      "uggest": 3799,
      "Ġothers": 3800,
      "witter": 3801,
      "Ġfund": 3802,
      "Init": 3803,
      "__(": 3804,
      "ensor": 3805,
      "GET": 3806,
      "Ġseveral": 3807,
      "ii": 3808,
      "[j": 3809,
      "IO": 3810,
      "Ġtemplate": 3811,
      "Position": 3812,
      "Ġecon": 3813,
      "achine": 3814,
      "Ġil": 3815,
      ".spring": 3816,
      "main": 3817,
      "elt": 3818,
      "iment": 3819,
      "Rec": 3820,
      "mm": 3821,
      "ĠUniversity": 3822,
      "ursor": 3823,
      "ĠĠĠĠĠĠĠĠĠĠĠĠĠĠĠĠĠĠĠĠ": 3824,
      "GL": 3825,
      "icture": 3826,
      "ithub": 3827,
      "cer": 3828,
      "cast": 3829,
      "From": 3830,
      "ales": 3831,
      "Ġsubject": 3832,
      "password": 3833,
      "ny": 3834,
      "Ġesc": 3835,
      ".write": 3836,
      "ï¼Į": 3837,
      "What": 3838,
      ".H": 3839,
      "Ġhistory": 3840,
      "ĠFe": 3841,
      "Ġindividual": 3842,
      "unit": 3843,
      "Ġ-->": 3844,
      "Ġdu": 3845,
      "IST": 3846,
      "Ġusers": 3847,
      "fs": 3848,
      "false": 3849,
      "unt": 3850,
      "Title": 3851,
      "Ġmot": 3852,
      "Ġfuture": 3853,
      "ached": 3854,
      "Ġstarted": 3855,
      "Ġmode": 3856,
      "Ġ'<": 3857,
      "_array": 3858,
      "Ġax": 3859,
      "'];Ċ": 3860,
      "ires": 3861,
      "There": 3862,
      "ught": 3863,
      "tml": 3864,
      "posed": 3865,
      "icult": 3866,
      "Ġtook": 3867,
      "Ġgames": 3868,
      "Ġ}}": 3869,
      "Ġ?>Ċ": 3870,
      "Ġproducts": 3871,
      "Is": 3872,
      "Ġbad": 3873,
      "ĠDes": 3874,
      ".path": 3875,
      "'ĊĊ": 3876,
      "ĠPost": 3877,
      "avel": 3878,
      "(:": 3879,
      "Ġneeds": 3880,
      "Ġknown": 3881,
      "Fl": 3882,
      "Ġexec": 3883,
      "Ġseen": 3884,
      "ume": 3885,
      "Ġborder": 3886,
      "Ġlive": 3887,
      "temp": 3888,
      "Per": 3889,
      "Ġvariable": 3890,
      "iet": 3891,
      "ĠDef": 3892,
      "Ġge": 3893,
      "eme": 3894,
      "_back": 3895,
      "first": 3896,
      "Ġprovided": 3897,
      "////////////////////////////////": 3898,
      "Ġfilename": 3899,
      "Ġhope": 3900,
      "uly": 3901,
      "auto": 3902,
      "find": 3903,
      "_string": 3904,
      "btn": 3905,
      "itude": 3906,
      "Attribute": 3907,
      "Ġyoung": 3908,
      ".txt": 3909,
      "Ġwebsite": 3910,
      "ĠProp": 3911,
      "Ġey": 3912,
      ">();Ċ": 3913,
      "ional": 3914,
      "ARR": 3915,
      "ictionary": 3916,
      "urther": 3917,
      ".</": 3918,
      "ALL": 3919,
      "Ġstudy": 3920,
      "ili": 3921,
      "Ġnetwork": 3922,
      "yl": 3923,
      "istance": 3924,
      "OK": 3925,
      "NU": 3926,
      "rest": 3927,
      "ĠST": 3928,
      "icrosoft": 3929,
      "Ġlimit": 3930,
      "Ġcut": 3931,
      "():Ċ": 3932,
      "Ġcou": 3933,
      "ogn": 3934,
      "Ġsizeof": 3935,
      "ival": 3936,
      "Ġwent": 3937,
      ".z": 3938,
      "Link": 3939,
      "Ġfire": 3940,
      "Ġacross": 3941,
      "Ġcommunity": 3942,
      "region": 3943,
      "NE": 3944,
      "Ref": 3945,
      "Ġofficial": 3946,
      "Ġvisit": 3947,
      "olve": 3948,
      "Ġreceived": 3949,
      "Ġtoken": 3950,
      "Ġmonths": 3951,
      "Ġanim": 3952,
      "Ġparticular": 3953,
      "styles": 3954,
      "ico": 3955,
      "Ġess": 3956,
      ".Control": 3957,
      "ĠÃ©": 3958,
      "ball": 3959,
      "Ġlearn": 3960,
      "inding": 3961,
      "Var": 3962,
      "Ġdecl": 3963,
      "(err": 3964,
      "LECT": 3965,
      "One": 3966,
      "pha": 3967,
      "Ġ~": 3968,
      "fort": 3969,
      "asure": 3970,
      "Ġmind": 3971,
      "ĠEnd": 3972,
      "Check": 3973,
      "Ġquick": 3974,
      "\"),": 3975,
      "AND": 3976,
      "utions": 3977,
      "Base": 3978,
      "________": 3979,
      "Ġcomment": 3980,
      "INE": 3981,
      "âĢĻve": 3982,
      "But": 3983,
      "ĠEl": 3984,
      "ĠUs": 3985,
      "Ġadmin": 3986,
      "mark": 3987,
      "ĠName": 3988,
      "`Ċ": 3989,
      "ĠType": 3990,
      "amic": 3991,
      "pc": 3992,
      "loor": 3993,
      "FT": 3994,
      "Ġopp": 3995,
      "cket": 3996,
      ")->": 3997,
      "tx": 3998,
      "Ġpur": 3999,
      "uel": 4000,
      "ymbol": 4001,
      "uation": 4002,
      "anger": 4003,
      "Ġbackground": 4004,
      "ecess": 4005,
      "efined": 4006,
      "........": 4007,
      "Ġdescription": 4008,
      "Ġrepresent": 4009,
      "\"));Ċ": 4010,
      "pression": 4011,
      "rowser": 4012,
      "Ġseries": 4013,
      "wards": 4014,
      "($_": 4015,
      "aise": 4016,
      "Ġhot": 4017,
      "acity": 4018,
      "ries": 4019,
      "actions": 4020,
      "Create": 4021,
      "adio": 4022,
      "amples": 4023,
      "Ġoriginal": 4024,
      "ensive": 4025,
      "font": 4026,
      "stream": 4027,
      "ï»¿using": 4028,
      ".springframework": 4029,
      "server": 4030,
      "Ġbill": 4031,
      "ACK": 4032,
      "ilename": 4033,
      "Ġframe": 4034,
      "Ġ=Ċ": 4035,
      "Edit": 4036,
      "adius": 4037,
      "Ġdraw": 4038,
      "anks": 4039,
      "Ġdeter": 4040,
      "Ġcomes": 4041,
      "_int": 4042,
      "Ġforeach": 4043,
      "angle": 4044,
      "Ġelect": 4045,
      "pected": 4046,
      "Header": 4047,
      "istration": 4048,
      "False": 4049,
      "ĠGame": 4050,
      "Ġfilter": 4051,
      "Activity": 4052,
      "Ġlarg": 4053,
      "inition": 4054,
      "Ġ\"<": 4055,
      "ised": 4056,
      "Ġremove": 4057,
      "ĠTrans": 4058,
      "met": 4059,
      "see": 4060,
      "Format": 4061,
      "Command": 4062,
      "ĠEX": 4063,
      "None": 4064,
      "Ġfront": 4065,
      "ASE": 4066,
      "ĠRec": 4067,
      "oundation": 4068,
      "Ġvo": 4069,
      "=\\\"": 4070,
      "(*": 4071,
      "Change": 4072,
      ".Write": 4073,
      "group": 4074,
      "ients": 4075,
      "uy": 4076,
      "****************************************************************": 4077,
      "Ġdig": 4078,
      "hr": 4079,
      "(-": 4080,
      "Ġgen": 4081,
      "number": 4082,
      "vec": 4083,
      "urope": 4084,
      "entry": 4085,
      "LL": 4086,
      "Ġste": 4087,
      "Valid": 4088,
      "'],": 4089,
      "_param": 4090,
      "Ġselected": 4091,
      "Ġaccording": 4092,
      "ĠDis": 4093,
      "Ġutil": 4094,
      "Buffer": 4095,
      "_error": 4096,
      "Ġassoci": 4097,
      "_SIZE": 4098,
      "Ġwor": 4099,
      "Ġprintf": 4100,
      "rag": 4101,
      "Âł": 4102,
      "DD": 4103,
      "ĠVal": 4104,
      "Ġactiv": 4105,
      "Eng": 4106,
      "etime": 4107,
      "Ġvirtual": 4108,
      "aign": 4109,
      "aur": 4110,
      "ĠPres": 4111,
      "ĠException": 4112,
      "Ġanything": 4113,
      "ĠOff": 4114,
      "Ġhours": 4115,
      "Ġwar": 4116,
      "Args": 4117,
      "aging": 4118,
      "Ġmodels": 4119,
      "ĠTime": 4120,
      "Ob": 4121,
      "ams": 4122,
      "joy": 4123,
      "Ġearly": 4124,
      ".read": 4125,
      "Ġcenter": 4126,
      "ĠInitial": 4127,
      "Ġlanguage": 4128,
      "length": 4129,
      "xy": 4130,
      "Ġsn": 4131,
      "Ġinf": 4132,
      "Post": 4133,
      "Ġago": 4134,
      "Ġeasy": 4135,
      "_code": 4136,
      "ĠANY": 4137,
      "_ch": 4138,
      "Ġdownload": 4139,
      "(T": 4140,
      "aved": 4141,
      "âĢĵ": 4142,
      "Ġstudents": 4143,
      "Ġfig": 4144,
      "light": 4145,
      "xx": 4146,
      "Ġbuffer": 4147,
      "ĠDep": 4148,
      "ĠMath": 4149,
      "ITH": 4150,
      "Ġvari": 4151,
      "Ġdue": 4152,
      "Factory": 4153,
      "Ġpor": 4154,
      "Ġep": 4155,
      "otype": 4156,
      "Ġcannot": 4157,
      "Ġwhite": 4158,
      "<int": 4159,
      "tern": 4160,
      "Ġregister": 4161,
      "Ġpred": 4162,
      "clus": 4163,
      "_date": 4164,
      "Ġ/**": 4165,
      "Ġauth": 4166,
      "Ġ[]Ċ": 4167,
      "Ġperiod": 4168,
      "nown": 4169,
      "Ġvot": 4170,
      "Ġscreen": 4171,
      "'d": 4172,
      "Types": 4173,
      "Ġtmp": 4174,
      "ÐµÐ": 4175,
      "ural": 4176,
      "Ġbenef": 4177,
      "_y": 4178,
      "Ġnet": 4179,
      "ĠStates": 4180,
      "']['": 4181,
      "ĠNe": 4182,
      "ĠNOT": 4183,
      "Ġneg": 4184,
      "Ġcommon": 4185,
      "scope": 4186,
      "Ġcred": 4187,
      "ges": 4188,
      "_TYPE": 4189,
      "Ġsuggest": 4190,
      "oom": 4191,
      ".ĊĊĊ": 4192,
      "Ġaccept": 4193,
      "Ġrandom": 4194,
      "erm": 4195,
      "ĠVector": 4196,
      "with": 4197,
      "TER": 4198,
      "(str": 4199,
      "Ġrespons": 4200,
      "Ġhit": 4201,
      ".Set": 4202,
      "grid": 4203,
      "ria": 4204,
      "Ġclick": 4205,
      "undle": 4206,
      "Case": 4207,
      "insert": 4208,
      "Utils": 4209,
      "Ġ\"\"\"": 4210,
      "Ġimplement": 4211,
      "atal": 4212,
      "tempt": 4213,
      "template": 4214,
      "ocr": 4215,
      "returns": 4216,
      "Ġplayers": 4217,
      "users": 4218,
      "edef": 4219,
      "ĠThese": 4220,
      "Ġamong": 4221,
      "Ġdeb": 4222,
      "ha": 4223,
      ".getElement": 4224,
      "Ġcirc": 4225,
      "Ġanswer": 4226,
      "Ġwalk": 4227,
      "Ġtreat": 4228,
      "ĠGe": 4229,
      "ĠCreate": 4230,
      "Ġage": 4231,
      "Ġreq": 4232,
      "OST": 4233,
      "angular": 4234,
      "Ñı": 4235,
      "Ġfive": 4236,
      "Ġdistributed": 4237,
      "Ġfriend": 4238,
      "TP": 4239,
      "Ġclean": 4240,
      "ows": 4241,
      ".Controls": 4242,
      "dis": 4243,
      "Ġwords": 4244,
      ".io": 4245,
      "zy": 4246,
      "Ġheader": 4247,
      "ĠCheck": 4248,
      "âĢĻm": 4249,
      "just": 4250,
      "holder": 4251,
      "=\"<?": 4252,
      "ĠGNU": 4253,
      "ĠCol": 4254,
      "imest": 4255,
      "entic": 4256,
      "{ĊĊ": 4257,
      "Ġtre": 4258,
      "last": 4259,
      "la": 4260,
      "ĠYork": 4261,
      "Lo": 4262,
      "Ġdiscuss": 4263,
      "ĠGod": 4264,
      "Ġissue": 4265,
      "rew": 4266,
      "Window": 4267,
      "Ġland": 4268,
      "Ġstream": 4269,
      "ĠPar": 4270,
      "Ġquality": 4271,
      "Par": 4272,
      "_num": 4273,
      "Ġsal": 4274,
      "elves": 4275,
      "ORD": 4276,
      "(user": 4277,
      "Ġworks": 4278,
      "Ġhalf": 4279,
      "enses": 4280,
      "vas": 4281,
      "Ġpolice": 4282,
      "(\"/": 4283,
      "ua": 4284,
      "Ġsimple": 4285,
      "Address": 4286,
      "Ġempty": 4287,
      "esh": 4288,
      "Update": 4289,
      "ĠCreated": 4290,
      "('.": 4291,
      ").Ċ": 4292,
      "ĠĠĠĠĠĠĠĠĠĠĠĠĠĠĠĠĠĠ": 4293,
      "Ġagre": 4294,
      "ĠFROM": 4295,
      "Ġcook": 4296,
      "Ġeverything": 4297,
      "ilities": 4298,
      ".status": 4299,
      "Ġrelations": 4300,
      "extern": 4301,
      "Ġnothing": 4302,
      "Ġrunning": 4303,
      "ĉvoid": 4304,
      "RI": 4305,
      "_a": 4306,
      "_CON": 4307,
      "por": 4308,
      ".sub": 4309,
      "require": 4310,
      "ĠCity": 4311,
      "ĠWest": 4312,
      "Ġmor": 4313,
      "store": 4314,
      "Equals": 4315,
      "oder": 4316,
      "Ġna": 4317,
      "Ġ[[": 4318,
      "Ġ('": 4319,
      "ĠDon": 4320,
      "ERS": 4321,
      "/p": 4322,
      ".json": 4323,
      "abor": 4324,
      "Ġsomeone": 4325,
      "_text": 4326,
      ".css": 4327,
      ".Tab": 4328,
      "ĠSome": 4329,
      "ato": 4330,
      "double": 4331,
      "Ġshare": 4332,
      "(void": 4333,
      "_dir": 4334,
      "Ġur": 4335,
      "Stack": 4336,
      "ĠWorld": 4337,
      ".X": 4338,
      "stract": 4339,
      "How": 4340,
      ".Generic": 4341,
      "icles": 4342,
      "Ġentry": 4343,
      "Ġchanges": 4344,
      "Ġpersonal": 4345,
      "(A": 4346,
      "Ġoffset": 4347,
      "_ptr": 4348,
      "Ġpie": 4349,
      "ĠJan": 4350,
      "-group": 4351,
      "module": 4352,
      "Items": 4353,
      "ĠHowever": 4354,
      "verage": 4355,
      ".Font": 4356,
      "Ġevents": 4357,
      ".min": 4358,
      "Ġinvol": 4359,
      "za": 4360,
      "Ġwhole": 4361,
      "Ġneeded": 4362,
      "Ġlikely": 4363,
      "rief": 4364,
      "ORM": 4365,
      "version": 4366,
      "Ġfight": 4367,
      "Ġein": 4368,
      "Frame": 4369,
      "gen": 4370,
      "ĠOut": 4371,
      "avigation": 4372,
      "Length": 4373,
      "illed": 4374,
      "quence": 4375,
      "Ġ!==": 4376,
      "ĠSoftware": 4377,
      "Ġwriting": 4378,
      "Ġrate": 4379,
      "'],Ċ": 4380,
      "Panel": 4381,
      "inner": 4382,
      "Ġ[\"": 4383,
      "Ġtw": 4384,
      "cd": 4385,
      "Ġ;Ċ": 4386,
      "_state": 4387,
      "ĠSm": 4388,
      "ĠMark": 4389,
      "))ĊĊ": 4390,
      "prot": 4391,
      "ĠMr": 4392,
      "method": 4393,
      "ustomer": 4394,
      "Icon": 4395,
      "Ġcorrect": 4396,
      "(object": 4397,
      "ĠMore": 4398,
      "Ġfall": 4399,
      "Ġvol": 4400,
      "Ġdevelopment": 4401,
      "ently": 4402,
      "Ġsi": 4403,
      "medi": 4404,
      "ving": 4405,
      "PP": 4406,
      "aker": 4407,
      "Ġindu": 4408,
      "Ġelif": 4409,
      "Ġpret": 4410,
      "Ġbelieve": 4411,
      "ns": 4412,
      "omet": 4413,
      "ĠIntern": 4414,
      "Rect": 4415,
      "So": 4416,
      ".error": 4417,
      "Read": 4418,
      "Ġfeatures": 4419,
      "Ġminutes": 4420,
      "---": 4421,
      "asing": 4422,
      "cret": 4423,
      "\">čĊ": 4424,
      ".annot": 4425,
      "Ġcollection": 4426,
      "'.": 4427,
      "Ġsimilar": 4428,
      "Ġtaken": 4429,
      "(\"%": 4430,
      "Order": 4431,
      "']Ċ": 4432,
      "-md": 4433,
      "ĠTH": 4434,
      "aced": 4435,
      "Ġisn": 4436,
      "/j": 4437,
      "Ġson": 4438,
      "graph": 4439,
      "ĠInteger": 4440,
      "Ġnecess": 4441,
      "reen": 4442,
      "Ġum": 4443,
      "Ġ\\<": 4444,
      "Ġmoment": 4445,
      "Ġbring": 4446,
      "Ġindic": 4447,
      "ysis": 4448,
      "Level": 4449,
      "verse": 4450,
      "urrenc": 4451,
      "_test": 4452,
      "Ġentire": 4453,
      "Down": 4454,
      "Ġ}ĊĊĊ": 4455,
      "(result": 4456,
      "ĠRead": 4457,
      "Ã¨": 4458,
      "Mod": 4459,
      "Ġtrying": 4460,
      "\"),Ċ": 4461,
      "Ġmember": 4462,
      "ĠCor": 4463,
      "ODO": 4464,
      "-control": 4465,
      "untime": 4466,
      "ĠSim": 4467,
      "Dialog": 4468,
      "plot": 4469,
      "_on": 4470,
      "Ġphys": 4471,
      "}/": 4472,
      "Ġnamespace": 4473,
      "ĉčĊ": 4474,
      "acc": 4475,
      "Player": 4476,
      "ARE": 4477,
      "Ġfoot": 4478,
      "Ġboard": 4479,
      "part": 4480,
      "Ġsus": 4481,
      "wise": 4482,
      "ĠMc": 4483,
      "Ġpush": 4484,
      "ATA": 4485,
      "Ġplease": 4486,
      "ried": 4487,
      "weet": 4488,
      "bit": 4489,
      "ided": 4490,
      "VE": 4491,
      "ĠSw": 4492,
      "UB": 4493,
      "Ġtypes": 4494,
      "edia": 4495,
      "Ġclos": 4496,
      "acebook": 4497,
      "When": 4498,
      "Ġedit": 4499,
      "igger": 4500,
      "Ġenerg": 4501,
      "Container": 4502,
      "Ġphot": 4503,
      "ĠCount": 4504,
      "ĠEurope": 4505,
      ".Is": 4506,
      "ĠRuss": 4507,
      "peed": 4508,
      "ĠStr": 4509,
      "Ġpy": 4510,
      "Ġcult": 4511,
      "Ġdefined": 4512,
      "ccount": 4513,
      "Ġobt": 4514,
      ".Location": 4515,
      "Ġthread": 4516,
      "ille": 4517,
      "Ġinstead": 4518,
      "strong": 4519,
      "ĠSec": 4520,
      "URE": 4521,
      "Ġidea": 4522,
      ".se": 4523,
      "emy": 4524,
      "selected": 4525,
      "Connection": 4526,
      "acing": 4527,
      "thread": 4528,
      ".next": 4529,
      "Ġcoll": 4530,
      "Ġfilm": 4531,
      "istic": 4532,
      "Ġcompet": 4533,
      "Ġconn": 4534,
      "though": 4535,
      "Ġcompan": 4536,
      "ocket": 4537,
      "Ġteach": 4538,
      "=(": 4539,
      "Ġphone": 4540,
      "Ġactive": 4541,
      "delete": 4542,
      "tries": 4543,
      "Ġmo": 4544,
      "Ġdeath": 4545,
      "});ĊĊ": 4546,
      "ocol": 4547,
      "Widget": 4548,
      "Ġarticle": 4549,
      "rodu": 4550,
      "andid": 4551,
      "Ñĭ": 4552,
      "ĠCr": 4553,
      "ka": 4554,
      "():": 4555,
      "lood": 4556,
      "ĉĉĉĊ": 4557,
      "Ġalmost": 4558,
      "Ġsell": 4559,
      "ervlet": 4560,
      "rip": 4561,
      "Unit": 4562,
      "Ġapplic": 4563,
      "Ġconnect": 4564,
      "Ġfeature": 4565,
      "Ġvia": 4566,
      "'),": 4567,
      "Ġlim": 4568,
      "ĠĠĠĠĠĠĠĠĠĠĠĠĠĠĠĠĠĠĠĠĠĠĠĠĠĠĠĠĠĠĠĠĠĠĠĠĠĠĠĠĠĠĠĠĠĠĠ": 4569,
      "ĠGu": 4570,
      "Engine": 4571,
      "Ġens": 4572,
      "Ġenvironment": 4573,
      "block": 4574,
      "HERE": 4575,
      "NULL": 4576,
      "gy": 4577,
      "tag": 4578,
      ")).": 4579,
      "exp": 4580,
      "Ġcompl": 4581,
      "Ġinstall": 4582,
      "Ġcomplete": 4583,
      "queue": 4584,
      "atural": 4585,
      "Ġgeneral": 4586,
      "thon": 4587,
      "Ġasked": 4588,
      "ores": 4589,
      "(res": 4590,
      "Ġreserved": 4591,
      "SP": 4592,
      "ĠâĢ¦": 4593,
      "ÅĤ": 4594,
      "Ġsignific": 4595,
      "Off": 4596,
      "ĠĠĠĠĠĠĠĠĠĠĠĠĠĠĠĠĠĠĠĠĠĠĠĠĠĠĠĠĠ": 4597,
      "ĠAg": 4598,
      "ĠJust": 4599,
      "ĠError": 4600,
      "Ġinfl": 4601,
      "adata": 4602,
      "Ġicon": 4603,
      "asks": 4604,
      "''": 4605,
      "_LO": 4606,
      "?.": 4607,
      "account": 4608,
      "Ġ(*": 4609,
      "')ĊĊ": 4610,
      "rap": 4611,
      "_var": 4612,
      "ĠFOR": 4613,
      "Ġparty": 4614,
      "ĠYour": 4615,
      "cat": 4616,
      "stry": 4617,
      ".new": 4618,
      "boot": 4619,
      "ĠNov": 4620,
      "Ġvector": 4621,
      "Ġnormal": 4622,
      "Ġfurther": 4623,
      "Repository": 4624,
      "Ġdatabase": 4625,
      "attle": 4626,
      "Ġmusic": 4627,
      "Ġspeed": 4628,
      "Ġdoc": 4629,
      "process": 4630,
      "IGHT": 4631,
      ".parse": 4632,
      "Ġtaking": 4633,
      "Ġviol": 4634,
      "ceed": 4635,
      "ĠAfter": 4636,
      "Ġforward": 4637,
      "Ġcrit": 4638,
      "\"/>Ċ": 4639,
      "rot": 4640,
      "Ġfailed": 4641,
      "efore": 4642,
      "Ġconcern": 4643,
      "oe": 4644,
      "ba": 4645,
      "Ġsender": 4646,
      "Ġterm": 4647,
      "has": 4648,
      "=\"#": 4649,
      "Ġpotential": 4650,
      "Num": 4651,
      "Ġpublished": 4652,
      ".close": 4653,
      "ĠImage": 4654,
      "straint": 4655,
      "UD": 4656,
      "ĠOb": 4657,
      "Ġprobably": 4658,
      "lim": 4659,
      "\":Ċ": 4660,
      "olume": 4661,
      "Ġconsum": 4662,
      "ague": 4663,
      "ensions": 4664,
      "Ġinvestig": 4665,
      "-year": 4666,
      "');": 4667,
      "-sm": 4668,
      "Ġenjoy": 4669,
      "orig": 4670,
      "ering": 4671,
      "cp": 4672,
      "leased": 4673,
      "plements": 4674,
      "Ġreturns": 4675,
      "pat": 4676,
      "BO": 4677,
      "ĠHouse": 4678,
      ".Label": 4679,
      "Ġweight": 4680,
      "ighb": 4681,
      "Ġconditions": 4682,
      "Ġexception": 4683,
      "description": 4684,
      "Ġtrad": 4685,
      "-to": 4686,
      "Ġ{}": 4687,
      "Ġmodule": 4688,
      "END": 4689,
      ".ap": 4690,
      ".props": 4691,
      "Ġconstructor": 4692,
      "aves": 4693,
      "Ġfavor": 4694,
      "ĠNow": 4695,
      ";i": 4696,
      "ĠMain": 4697,
      "_k": 4698,
      "eries": 4699,
      "âĢĻll": 4700,
      "transform": 4701,
      "imestamp": 4702,
      "Pre": 4703,
      "Ġmer": 4704,
      ".res": 4705,
      "stant": 4706,
      "Location": 4707,
      "_NAME": 4708,
      "Ġloss": 4709,
      "ĠĊĊ": 4710,
      "net": 4711,
      "Ġengine": 4712,
      "Block": 4713,
      "Ġissues": 4714,
      "Ġparse": 4715,
      "ĠBar": 4716,
      "Ġstay": 4717,
      "ĠJSON": 4718,
      "Ġdom": 4719,
      "airs": 4720,
      "wner": 4721,
      "Ġlower": 4722,
      "\",čĊ": 4723,
      "ĠDem": 4724,
      "ufact": 4725,
      "Ġps": 4726,
      "Ġperfect": 4727,
      "RL": 4728,
      "Ġeduc": 4729,
      "ls": 4730,
      "emory": 4731,
      "ARRANT": 4732,
      "uge": 4733,
      "Ġexact": 4734,
      ".key": 4735,
      "alled": 4736,
      "ech": 4737,
      "ief": 4738,
      "\\/": 4739,
      "oke": 4740,
      "Ġformer": 4741,
      "alloc": 4742,
      "Ġsix": 4743,
      "ida": 4744,
      "Ġmargin": 4745,
      "Ġheart": 4746,
      "ald": 4747,
      "pack": 4748,
      ".getElementById": 4749,
      "ĠWARRANT": 4750,
      "Ġrather": 4751,
      "Ġbuilding": 4752,
      "erman": 4753,
      "lice": 4754,
      "Ġquestions": 4755,
      "izes": 4756,
      "lege": 4757,
      "irectory": 4758,
      "Ġje": 4759,
      "Ġcas": 4760,
      "props": 4761,
      "utf": 4762,
      "Ġsecurity": 4763,
      "Ġhowever": 4764,
      "weight": 4765,
      "Ġinside": 4766,
      "Ġpresident": 4767,
      "Char": 4768,
      "ĠWITH": 4769,
      ".map": 4770,
      "Ġgraph": 4771,
      "Ġtag": 4772,
      "_status": 4773,
      "Ġattempt": 4774,
      "opp": 4775,
      "uses": 4776,
      "ĉconst": 4777,
      "Ġround": 4778,
      ",$": 4779,
      "Ġfriends": 4780,
      "Email": 4781,
      "?>": 4782,
      "Resource": 4783,
      "KEY": 4784,
      "osp": 4785,
      ".query": 4786,
      "ĠNorth": 4787,
      "ables": 4788,
      "istrib": 4789,
      "_class": 4790,
      "ello": 4791,
      "That": 4792,
      "Ðº": 4793,
      "pecially": 4794,
      "ĠPresident": 4795,
      "Ġcampaign": 4796,
      "Ġalt": 4797,
      "area": 4798,
      "Ġchall": 4799,
      "Ġopport": 4800,
      ".Con": 4801,
      "Ġenergy": 4802,
      "like": 4803,
      ".string": 4804,
      "ington": 4805,
      ")*": 4806,
      "yy": 4807,
      "Ġprofession": 4808,
      "irth": 4809,
      "Ġseg": 4810,
      "æľ": 4811,
      "Ġhor": 4812,
      "iers": 4813,
      "can": 4814,
      "Ġbehind": 4815,
      "Product": 4816,
      "fg": 4817,
      "ĠSk": 4818,
      ".jpg": 4819,
      "?:": 4820,
      "];ĊĊ": 4821,
      "Ġcallback": 4822,
      "ĠHttp": 4823,
      "ÑĮ": 4824,
      "long": 4825,
      "MS": 4826,
      "ATH": 4827,
      "Ġraise": 4828,
      "Ġwanted": 4829,
      "rown": 4830,
      "utor": 4831,
      "lt": 4832,
      "]=": 4833,
      "eline": 4834,
      "MA": 4835,
      "Ġsepar": 4836,
      "cs": 4837,
      "semb": 4838,
      "Dis": 4839,
      "bserv": 4840,
      "ĠWill": 4841,
      "Ġpolicy": 4842,
      "Ġthird": 4843,
      "phone": 4844,
      "Ġbed": 4845,
      "/g": 4846,
      ".__": 4847,
      "ĠInc": 4848,
      "izing": 4849,
      ".remove": 4850,
      "instance": 4851,
      ".type": 4852,
      "Ġserv": 4853,
      "Each": 4854,
      "Ġhar": 4855,
      "ĠMessage": 4856,
      "(key": 4857,
      "SELECT": 4858,
      "Pos": 4859,
      "));čĊ": 4860,
      "Ġrecomm": 4861,
      "Ġtraining": 4862,
      "ĠEnt": 4863,
      "ĠChar": 4864,
      "icht": 4865,
      "(file": 4866,
      "Ġprior": 4867,
      "Game": 4868,
      "Ġexit": 4869,
      "Params": 4870,
      ".core": 4871,
      "PC": 4872,
      "nes": 4873,
      "anced": 4874,
      "(request": 4875,
      "Password": 4876,
      "}>Ċ": 4877,
      "Ġmag": 4878,
      "Ġrelease": 4879,
      "Ġshall": 4880,
      "udent": 4881,
      "ĠSouth": 4882,
      "ando": 4883,
      ":'": 4884,
      ".TabIndex": 4885,
      "sk": 4886,
      "anner": 4887,
      "isset": 4888,
      "Ġoutside": 4889,
      "ledge": 4890,
      "Ġå": 4891,
      "ĠRob": 4892,
      "Ġimm": 4893,
      "!Ċ": 4894,
      "ĠWeb": 4895,
      "Des": 4896,
      "BC": 4897,
      "ancial": 4898,
      "Route": 4899,
      "Dec": 4900,
      "ferences": 4901,
      "Ġpurch": 4902,
      "ĠModel": 4903,
      "ctor": 4904,
      "gn": 4905,
      "_start": 4906,
      "_un": 4907,
      ".*": 4908,
      "ises": 4909,
      "Ġground": 4910,
      "Ġunique": 4911,
      "Ġbeaut": 4912,
      "{\"": 4913,
      "Ġpour": 4914,
      "ĠOct": 4915,
      "Ġtree": 4916,
      "sets": 4917,
      "_res": 4918,
      "')->": 4919,
      "_reg": 4920,
      "(\"\\": 4921,
      "Ġbyte": 4922,
      "Bl": 4923,
      "Ġdating": 4924,
      "Ġmatter": 4925,
      "ĠRem": 4926,
      "Ġ'../": 4927,
      "ĠAug": 4928,
      "ĠLa": 4929,
      "Ġ$(": 4930,
      "ournal": 4931,
      "iam": 4932,
      "Ġshows": 4933,
      "write": 4934,
      "Ġball": 4935,
      "Ġsimply": 4936,
      "Ġfast": 4937,
      "Ġmemory": 4938,
      "ASS": 4939,
      "ĠOf": 4940,
      "oved": 4941,
      "ante": 4942,
      "aul": 4943,
      "istry": 4944,
      ")));Ċ": 4945,
      "Ġfit": 4946,
      "<string": 4947,
      "Ġpolitical": 4948,
      "ancel": 4949,
      "_.": 4950,
      "card": 4951,
      ".current": 4952,
      "och": 4953,
      "_image": 4954,
      "\\t": 4955,
      "#Ċ": 4956,
      "(L": 4957,
      "Ġindustry": 4958,
      "coming": 4959,
      "Ġextra": 4960,
      "Ġreported": 4961,
      ".start": 4962,
      "Ġresources": 4963,
      "Ġimg": 4964,
      "flow": 4965,
      "_EX": 4966,
      "(null": 4967,
      "ĠPre": 4968,
      "Ġwrong": 4969,
      "interface": 4970,
      "Parameter": 4971,
      "ners": 4972,
      "á»": 4973,
      "ture": 4974,
      "ersist": 4975,
      "ountry": 4976,
      "Ġseems": 4977,
      "alance": 4978,
      "dest": 4979,
      "ĉString": 4980,
      "Ġmaint": 4981,
      "Ġunit": 4982,
      "acters": 4983,
      "ĠTR": 4984,
      "iful": 4985,
      "exports": 4986,
      "project": 4987,
      "Application": 4988,
      "legate": 4989,
      "Ġtakes": 4990,
      "term": 4991,
      "Ġetc": 4992,
      "uster": 4993,
      "Ġappear": 4994,
      "address": 4995,
      "Ġfem": 4996,
      "hs": 4997,
      "Ġhom": 4998,
      ",-": 4999,
      "Ġdifficult": 5000,
      "Ġcoming": 5001,
      "Open": 5002,
      "Ġsettings": 5003,
      "ĠWar": 5004,
      "ĠThen": 5005,
      "Ġautom": 5006,
      "ĠFoundation": 5007,
      "Ġquite": 5008,
      "Description": 5009,
      "Ġblog": 5010,
      "iqu": 5011,
      "PS": 5012,
      "_field": 5013,
      "Json": 5014,
      "SSION": 5015,
      "ĠSch": 5016,
      "ĠLO": 5017,
      "Ġdescri": 5018,
      "Ġeveryone": 5019,
      "Ġpretty": 5020,
      "Ġlonger": 5021,
      "Ġmenu": 5022,
      "Ġcurrently": 5023,
      "sec": 5024,
      "Ġrelationship": 5025,
      "################################": 5026,
      "ĠMap": 5027,
      "aset": 5028,
      "Ġparameters": 5029,
      "Ġcrush": 5030,
      "\"čĊ": 5031,
      "ILITY": 5032,
      "igration": 5033,
      "Ġcout": 5034,
      "total": 5035,
      "Ġnames": 5036,
      "ndef": 5037,
      "\");": 5038,
      "riend": 5039,
      "ynamic": 5040,
      "Ġeffort": 5041,
      "Ġactual": 5042,
      "Ġfields": 5043,
      "OUN": 5044,
      "ters": 5045,
      "Ġfix": 5046,
      "_model": 5047,
      "Ġcases": 5048,
      "CA": 5049,
      "My": 5050,
      "Interface": 5051,
      "ĠSE": 5052,
      "]]": 5053,
      "alle": 5054,
      "ĠNational": 5055,
      "ĠArrayList": 5056,
      "inline": 5057,
      ".V": 5058,
      "ara": 5059,
      "refix": 5060,
      "asc": 5061,
      "Reader": 5062,
      "ĠÐ¿": 5063,
      "astic": 5064,
      "(()": 5065,
      "Cl": 5066,
      ".annotation": 5067,
      "Ġperformance": 5068,
      "aily": 5069,
      ".toString": 5070,
      ".net": 5071,
      "views": 5072,
      ".end": 5073,
      "ayers": 5074,
      "late": 5075,
      "ĠApr": 5076,
      "ederal": 5077,
      "'])": 5078,
      ".body": 5079,
      "Ġhigher": 5080,
      "_fl": 5081,
      "cr": 5082,
      "alert": 5083,
      "_node": 5084,
      "ĠGoogle": 5085,
      "Ġitself": 5086,
      "Auth": 5087,
      "urrency": 5088,
      "Ġsignificant": 5089,
      "append": 5090,
      "Ġrespect": 5091,
      "strap": 5092,
      "Ġuna": 5093,
      "riteria": 5094,
      "PORT": 5095,
      ".apache": 5096,
      "Output": 5097,
      "Ġprogress": 5098,
      "Ġmid": 5099,
      "ĠMicrosoft": 5100,
      "Ġresource": 5101,
      "ablish": 5102,
      "Ġdim": 5103,
      ".load": 5104,
      ".App": 5105,
      "Ġdirection": 5106,
      "Ġadditional": 5107,
      "ĠĠĠĠĠĠĠĠĠĠĠĠĠĠĠĠĠĠĠĠĠĠĠĠ": 5108,
      "Ġnumbers": 5109,
      "Ġcompanies": 5110,
      ".Th": 5111,
      "Ġsound": 5112,
      "username": 5113,
      "Ġstatement": 5114,
      "Ġalert": 5115,
      "Ġcontract": 5116,
      "home": 5117,
      "_length": 5118,
      ".Component": 5119,
      "ev": 5120,
      ".Ex": 5121,
      "ï¼ļ": 5122,
      "\";": 5123,
      "ĠHigh": 5124,
      "Ġ)ĊĊ": 5125,
      "ĠPoint": 5126,
      "oph": 5127,
      "Ġlines": 5128,
      "->_": 5129,
      "\")ĊĊ": 5130,
      "ox": 5131,
      "application": 5132,
      "Ġ]Ċ": 5133,
      "ĊĊĊĊĊĊ": 5134,
      "Ġsoon": 5135,
      "ctions": 5136,
      "inger": 5137,
      "Ġjoin": 5138,
      "ĠPe": 5139,
      "Ġë": 5140,
      "Ġlas": 5141,
      ".E": 5142,
      "css": 5143,
      "/or": 5144,
      "ĠStart": 5145,
      "ĠTO": 5146,
      "Ġsubs": 5147,
      "conn": 5148,
      "components": 5149,
      "DEBUG": 5150,
      "quare": 5151,
      "Function": 5152,
      "endar": 5153,
      ".index": 5154,
      "Ġfill": 5155,
      "ÄĻ": 5156,
      "Ġchoose": 5157,
      "how": 5158,
      "ĠAmerica": 5159,
      "assets": 5160,
      "------------": 5161,
      "ĠValue": 5162,
      "Ġoffice": 5163,
      "Ġveh": 5164,
      "Ġtransform": 5165,
      "ĠArt": 5166,
      "Ġinde": 5167,
      "Ġfn": 5168,
      "Ġimplements": 5169,
      "ango": 5170,
      "plete": 5171,
      "+\"": 5172,
      "tmp": 5173,
      "amily": 5174,
      "Ġhash": 5175,
      "missions": 5176,
      "EST": 5177,
      "gt": 5178,
      "Provider": 5179,
      "ĠĠĠĠĠĠĠĠĠĠĠĠĠĠĠĠĠĠĠĠĠĠ": 5180,
      "Ġflag": 5181,
      "Ġparticip": 5182,
      "den": 5183,
      "ĠReturns": 5184,
      "Ġnote": 5185,
      "Ã¼r": 5186,
      "pm": 5187,
      "ideos": 5188,
      "Ġspecified": 5189,
      "ĠEN": 5190,
      "ester": 5191,
      "olid": 5192,
      "Ġupon": 5193,
      "(std": 5194,
      "ĉv": 5195,
      "Ġ'\\": 5196,
      "uz": 5197,
      "Ġvert": 5198,
      "Ġvict": 5199,
      "ĉself": 5200,
      "Ġ\"$": 5201,
      ".k": 5202,
      "Ġgroups": 5203,
      "github": 5204,
      "lang": 5205,
      "Ġmut": 5206,
      "TO": 5207,
      "Ġve": 5208,
      "ĠPlease": 5209,
      ";ĊĊĊ": 5210,
      "access": 5211,
      "Ġ{\"": 5212,
      "rea": 5213,
      "Ġrisk": 5214,
      "icker": 5215,
      "oggle": 5216,
      "ĉwhile": 5217,
      "ANG": 5218,
      ".send": 5219,
      "Ġwoman": 5220,
      "Ġgets": 5221,
      "Ġign": 5222,
      "ĠId": 5223,
      "_log": 5224,
      "ONE": 5225,
      "Ġevid": 5226,
      "ĠHar": 5227,
      "_sub": 5228,
      "Ġendl": 5229,
      "Ġincluded": 5230,
      "());ĊĊ": 5231,
      "ĠAp": 5232,
      "igr": 5233,
      "Ġsem": 5234,
      "ĠBlack": 5235,
      "doc": 5236,
      "_table": 5237,
      "ĠĠĠĠĠĠĠĠĠĠĠĠĠĠĠĠĠĠĠĠĠĠĠĠĠĠĠĠĠĠĠĠĠĠĠĠĠĠĠĠĠĠĠĠĠĠĠĠĠĠĠĠĠĠĠĠĠĠĠĠĠĠĠĠ": 5238,
      "-up": 5239,
      "Ġcause": 5240,
      "Ġ..": 5241,
      "Ġvan": 5242,
      "_dict": 5243,
      "Ġfocus": 5244,
      "IND": 5245,
      "CESS": 5246,
      ".Log": 5247,
      "Ġmultiple": 5248,
      "ido": 5249,
      "Ġregard": 5250,
      "-M": 5251,
      "andler": 5252,
      "ourse": 5253,
      "Ġdeg": 5254,
      ".U": 5255,
      "Ġaddition": 5256,
      "Ġvarious": 5257,
      "Ġreceive": 5258,
      "ÐµÐ½": 5259,
      "ĠHT": 5260,
      "Obj": 5261,
      "DF": 5262,
      "Ġincrease": 5263,
      "ĠOpen": 5264,
      "];": 5265,
      "Ġcommit": 5266,
      "?Ċ": 5267,
      "ategories": 5268,
      "atory": 5269,
      "ship": 5270,
      "ĠMich": 5271,
      "Ġhtml": 5272,
      "romise": 5273,
      "Ġleave": 5274,
      "Ġstrateg": 5275,
      "aven": 5276,
      "ĠConsole": 5277,
      "known": 5278,
      "-n": 5279,
      "_LE": 5280,
      ".component": 5281,
      "Ġbre": 5282,
      "Session": 5283,
      "iance": 5284,
      "Ġalign": 5285,
      "typedef": 5286,
      "_result": 5287,
      "ĠWHERE": 5288,
      ".split": 5289,
      "Ġreading": 5290,
      "FAULT": 5291,
      "Ġclo": 5292,
      "Ġnotice": 5293,
      "_pr": 5294,
      "arter": 5295,
      "Ġlock": 5296,
      "Ġstandard": 5297,
      "etic": 5298,
      "ellow": 5299,
      "Ġpadding": 5300,
      "ĠHis": 5301,
      "Ġstates": 5302,
      "_cast": 5303,
      "(P": 5304,
      "aa": 5305,
      "Ġinternal": 5306,
      "ean": 5307,
      "ĠPRO": 5308,
      "ĠKey": 5309,
      "Ġespecially": 5310,
      "ming": 5311,
      "Ġcross": 5312,
      "Ġnational": 5313,
      "_object": 5314,
      "filter": 5315,
      "Ġscript": 5316,
      ".update": 5317,
      "_i": 5318,
      "ĠAssert": 5319,
      "/core": 5320,
      "%%%%": 5321,
      "Ġproblems": 5322,
      "istor": 5323,
      "Ġ.=": 5324,
      "Ġarch": 5325,
      "Ġwritten": 5326,
      "Ġmilit": 5327,
      "MENT": 5328,
      ".ch": 5329,
      "cape": 5330,
      "ĠMus": 5331,
      "_config": 5332,
      "ĠAPI": 5333,
      "foot": 5334,
      "Ġimages": 5335,
      "endl": 5336,
      ".In": 5337,
      "First": 5338,
      "Ġplatform": 5339,
      ".prot": 5340,
      "Option": 5341,
      "ste": 5342,
      "ĠTODO": 5343,
      "Ġforce": 5344,
      ".cont": 5345,
      "ĉecho": 5346,
      "ĠDav": 5347,
      "Ptr": 5348,
      "(B": 5349,
      "RT": 5350,
      "ĠBase": 5351,
      "]['": 5352,
      "Ġannounc": 5353,
      "console": 5354,
      "ĠPy": 5355,
      "ds": 5356,
      ".as": 5357,
      "Ġprevent": 5358,
      "apan": 5359,
      "Ġ{'": 5360,
      "}</": 5361,
      "ĠService": 5362,
      "ĠSen": 5363,
      "ador": 5364,
      "profile": 5365,
      "Top": 5366,
      "Ġiter": 5367,
      "po": 5368,
      "IES": 5369,
      "JSON": 5370,
      "IE": 5371,
      "iant": 5372,
      "ãĢģ": 5373,
      "_j": 5374,
      "ĠSept": 5375,
      "_map": 5376,
      "bum": 5377,
      "(context": 5378,
      "ĠHome": 5379,
      "ians": 5380,
      "GB": 5381,
      "Ġliving": 5382,
      "Ġpattern": 5383,
      "(input": 5384,
      "icient": 5385,
      "Core": 5386,
      "Ġentity": 5387,
      "Ġinteg": 5388,
      "Changed": 5389,
      "Ġuseful": 5390,
      ".info": 5391,
      "Ġtool": 5392,
      "(item": 5393,
      "Ġok": 5394,
      "Ġfeed": 5395,
      "IX": 5396,
      "Ã©s": 5397,
      "ĠNews": 5398,
      "remove": 5399,
      "erry": 5400,
      "ĉĉĉĉĉĉĉĉĉ": 5401,
      "ipment": 5402,
      "ares": 5403,
      "Do": 5404,
      "Current": 5405,
      ".content": 5406,
      ".Group": 5407,
      "ustral": 5408,
      "ĠÑģ": 5409,
      "})": 5410,
      "Ġpopular": 5411,
      "Ġstre": 5412,
      "Ġmethods": 5413,
      "_ERROR": 5414,
      "Left": 5415,
      "cal": 5416,
      "bsp": 5417,
      ".ToString": 5418,
      "Ġdir": 5419,
      "Ġallowed": 5420,
      "Ġimpact": 5421,
      "\")]Ċ": 5422,
      ".config": 5423,
      "Ġelements": 5424,
      "Ġprote": 5425,
      "Ġtrain": 5426,
      ".tr": 5427,
      "rs": 5428,
      "ĠRepublic": 5429,
      "ĠTask": 5430,
      "aries": 5431,
      "(D": 5432,
      "(get": 5433,
      "âĢ¦ĊĊ": 5434,
      "Ġrelated": 5435,
      "Ġvers": 5436,
      "Ġsil": 5437,
      "Ġ\"\";Ċ": 5438,
      "Ġcmd": 5439,
      "Ġtechnology": 5440,
      ".width": 5441,
      "Float": 5442,
      "ĠUse": 5443,
      "Body": 5444,
      "should": 5445,
      ".join": 5446,
      "Font": 5447,
      "llum": 5448,
      "ycle": 5449,
      "ĠBrit": 5450,
      "Ġmit": 5451,
      "Ġscale": 5452,
      "Ġ(_": 5453,
      "ernel": 5454,
      "\"))Ċ": 5455,
      "Ġscore": 5456,
      "/v": 5457,
      "Ġstudent": 5458,
      "UC": 5459,
      ".show": 5460,
      "Ġaverage": 5461,
      "Enabled": 5462,
      "(ex": 5463,
      "common": 5464,
      "imation": 5465,
      ":@\"": 5466,
      "chie": 5467,
      "Ġ...ĊĊ": 5468,
      "river": 5469,
      "ĠMarch": 5470,
      "category": 5471,
      "fin": 5472,
      "Ġcourt": 5473,
      "Ð²": 5474,
      "Server": 5475,
      "Ġcontainer": 5476,
      "-st": 5477,
      "_for": 5478,
      "Ġparts": 5479,
      "Ġdecision": 5480,
      "obs": 5481,
      "oub": 5482,
      "mitted": 5483,
      "Ġ$('#": 5484,
      "Ġsaw": 5485,
      "Ġapproach": 5486,
      "ICE": 5487,
      "Ġsaying": 5488,
      "Ġanyone": 5489,
      "meta": 5490,
      "SD": 5491,
      "Ġsong": 5492,
      "display": 5493,
      "Oper": 5494,
      "outes": 5495,
      "Ġchannel": 5496,
      "Ġchanged": 5497,
      "Ãª": 5498,
      "Ġfinally": 5499,
      "_number": 5500,
      "Please": 5501,
      "à¤": 5502,
      "oring": 5503,
      "-re": 5504,
      "Ġkill": 5505,
      "Ġdrug": 5506,
      "window": 5507,
      "Ġconvert": 5508,
      "ombre": 5509,
      "Ġways": 5510,
      "Helper": 5511,
      "ĠFirst": 5512,
      "(__": 5513,
      "urity": 5514,
      "ĠWindows": 5515,
      "ees": 5516,
      "Ġmat": 5517,
      "rapper": 5518,
      "Ġplus": 5519,
      "anges": 5520,
      "\"].": 5521,
      "azon": 5522,
      "/t": 5523,
      "lat": 5524,
      "aste": 5525,
      "Ġprofile": 5526,
      "Ġready": 5527,
      "#ifndef": 5528,
      "rote": 5529,
      "Ġsense": 5530,
      "Gener": 5531,
      "ĠConfig": 5532,
      "omy": 5533,
      "ĠJune": 5534,
      "Ġlatest": 5535,
      "Ġsaf": 5536,
      "Ġregion": 5537,
      "Ġdeep": 5538,
      "witch": 5539,
      "ĠPark": 5540,
      "}`": 5541,
      "ĠFrom": 5542,
      "II": 5543,
      "Ġcv": 5544,
      "Ġreach": 5545,
      "Ġcounter": 5546,
      "ĠWork": 5547,
      "ĠURL": 5548,
      "ĠUpdate": 5549,
      "',čĊ": 5550,
      "Ġimmedi": 5551,
      "close": 5552,
      "ados": 5553,
      "ferred": 5554,
      "Ġweeks": 5555,
      "urg": 5556,
      "Ġdamage": 5557,
      "Ġlost": 5558,
      "ani": 5559,
      "_lo": 5560,
      "Ġhimself": 5561,
      "Ġdog": 5562,
      ")]Ċ": 5563,
      "ï¿": 5564,
      "pir": 5565,
      "tt": 5566,
      "Ġpaper": 5567,
      "Ġthems": 5568,
      "second": 5569,
      "Ġstaff": 5570,
      "ĠInput": 5571,
      "\"+": 5572,
      "ĠFacebook": 5573,
      "Ġalloc": 5574,
      "Ġsched": 5575,
      "ACE": 5576,
      "Ġthemselves": 5577,
      "ĠComponent": 5578,
      "Ġdriver": 5579,
      "ja": 5580,
      "(path": 5581,
      "Ġcategory": 5582,
      "alls": 5583,
      "pu": 5584,
      "lluminate": 5585,
      "ĠAction": 5586,
      ".button": 5587,
      "ĠGL": 5588,
      "istics": 5589,
      "Ġoil": 5590,
      "Ġstock": 5591,
      ">'": 5592,
      "Ġdead": 5593,
      "VAL": 5594,
      "QUE": 5595,
      "************************************************************************": 5596,
      "Ġcharg": 5597,
      "Return": 5598,
      "Ġful": 5599,
      "dom": 5600,
      "Ġrules": 5601,
      "Ġmodify": 5602,
      "Ġeval": 5603,
      "ham": 5604,
      "atement": 5605,
      "\\<": 5606,
      "ula": 5607,
      "=False": 5608,
      "RA": 5609,
      "Ġcontains": 5610,
      "Ġstack": 5611,
      "mar": 5612,
      "Ġ{}Ċ": 5613,
      "Ġundefined": 5614,
      "Ass": 5615,
      "ĠChina": 5616,
      "vey": 5617,
      "*Ċ": 5618,
      "Ġplaying": 5619,
      ")/": 5620,
      "actor": 5621,
      "Ġbottom": 5622,
      "lier": 5623,
      "ĠNumber": 5624,
      "Ġcouple": 5625,
      "DC": 5626,
      "ĠSO": 5627,
      "gor": 5628,
      ".setText": 5629,
      "success": 5630,
      "command": 5631,
      "Filter": 5632,
      "ĠOur": 5633,
      "_item": 5634,
      "Ġctx": 5635,
      "Ġroad": 5636,
      "Version": 5637,
      "case": 5638,
      "urt": 5639,
      "avior": 5640,
      "ych": 5641,
      "sembly": 5642,
      "ĠProduct": 5643,
      "Ġheld": 5644,
      "afe": 5645,
      "Ġincludes": 5646,
      "<quote": 5647,
      "Ġavoid": 5648,
      "ĠFin": 5649,
      "ĠMod": 5650,
      "Ġtab": 5651,
      "ano": 5652,
      "Ã±": 5653,
      "ipping": 5654,
      "-e": 5655,
      "Ġinsert": 5656,
      "target": 5657,
      "chan": 5658,
      ".Model": 5659,
      "IME": 5660,
      "\\Ċ": 5661,
      "Ġmachine": 5662,
      "avy": 5663,
      "ĠNO": 5664,
      "ĠInter": 5665,
      "Ġoperation": 5666,
      "modal": 5667,
      "Tag": 5668,
      "]:": 5669,
      "Ġproduction": 5670,
      "Ġareas": 5671,
      "Ġren": 5672,
      "_from": 5673,
      "nbsp": 5674,
      "Ġoperator": 5675,
      "men": 5676,
      "apped": 5677,
      "_per": 5678,
      "zen": 5679,
      "(\".": 5680,
      ".save": 5681,
      "=\"{{": 5682,
      "Ġtor": 5683,
      "(response": 5684,
      "Ġcandid": 5685,
      "Ġconv": 5686,
      "ailed": 5687,
      "ĠLib": 5688,
      "comp": 5689,
      "ura": 5690,
      "ï¿½": 5691,
      "ĠHere": 5692,
      "Ġargument": 5693,
      "hood": 5694,
      "Ġestablish": 5695,
      "ography": 5696,
      "ĠonClick": 5697,
      "ambda": 5698,
      "Ġsch": 5699,
      "Ġmovie": 5700,
      "Ġsec": 5701,
      "Ġactivity": 5702,
      "Ø§": 5703,
      "Ġsql": 5704,
      "_all": 5705,
      "incip": 5706,
      "Ġprovides": 5707,
      "Ġsys": 5708,
      "acket": 5709,
      "Ġwasn": 5710,
      "Ġuses": 5711,
      "ĠFunction": 5712,
      ".google": 5713,
      "ĠResult": 5714,
      "Visible": 5715,
      "agma": 5716,
      "elcome": 5717,
      "ĠSy": 5718,
      "ĠCent": 5719,
      "ALSE": 5720,
      "aciÃ³n": 5721,
      "EXT": 5722,
      "Ġlicense": 5723,
      "ĠLong": 5724,
      "Ġaccom": 5725,
      "Ġability": 5726,
      ".height": 5727,
      "Active": 5728,
      "ological": 5729,
      "oly": 5730,
      ")),": 5731,
      ".Se": 5732,
      "Ġparameter": 5733,
      "prite": 5734,
      "ABILITY": 5735,
      ".service": 5736,
      "ĠGroup": 5737,
      "_query": 5738,
      "ĠItem": 5739,
      "ining": 5740,
      "Ġjud": 5741,
      "ims": 5742,
      "fix": 5743,
      "inder": 5744,
      "agram": 5745,
      "Ġfunctions": 5746,
      "Ġexperi": 5747,
      "ĠEm": 5748,
      "Ġrot": 5749,
      "Ġpen": 5750,
      ".btn": 5751,
      "ĠAS": 5752,
      "#ifdef": 5753,
      "Ġchoice": 5754,
      "ĠPage": 5755,
      "_PRO": 5756,
      "QU": 5757,
      "åı": 5758,
      "antity": 5759,
      "ÂŃ": 5760,
      "words": 5761,
      "Ġreadonly": 5762,
      "Ġflex": 5763,
      "protected": 5764,
      "ĠAny": 5765,
      "Ġcharacters": 5766,
      "enced": 5767,
      "ĠJuly": 5768,
      "iler": 5769,
      "Card": 5770,
      "urance": 5771,
      "Ġrev": 5772,
      ".event": 5773,
      "aly": 5774,
      "Ġwonder": 5775,
      "ĠPort": 5776,
      "Ġlegal": 5777,
      "role": 5778,
      "Ġten": 5779,
      "Ġgoes": 5780,
      "MP": 5781,
      "white": 5782,
      "):čĊ": 5783,
      "))čĊ": 5784,
      "Ġreference": 5785,
      "Ġmis": 5786,
      "ĠProject": 5787,
      "icks": 5788,
      ">&": 5789,
      "CON": 5790,
      "Ġrepl": 5791,
      "Ġregular": 5792,
      "Storage": 5793,
      "ramework": 5794,
      "Ġgoal": 5795,
      "Ġtouch": 5796,
      ".widget": 5797,
      "Ġbuilt": 5798,
      "des": 5799,
      "Part": 5800,
      "(re": 5801,
      "Ġworth": 5802,
      "hib": 5803,
      "game": 5804,
      "ĠÐ²": 5805,
      "acion": 5806,
      "ĠWhite": 5807,
      "(type": 5808,
      "(`": 5809,
      "Ġnatural": 5810,
      "Ġinj": 5811,
      "Ġcalcul": 5812,
      "ĠApril": 5813,
      ".List": 5814,
      "Ġassociated": 5815,
      "ĉSystem": 5816,
      "~~": 5817,
      "=[": 5818,
      "Ġstorage": 5819,
      "Ġbytes": 5820,
      "Ġtravel": 5821,
      "Ġsou": 5822,
      "Ġpassed": 5823,
      "!=": 5824,
      "ascript": 5825,
      ".open": 5826,
      "Ġgrid": 5827,
      "Ġbus": 5828,
      "Ġrecogn": 5829,
      "Ab": 5830,
      "Ġhon": 5831,
      "ĠCenter": 5832,
      "Ġprec": 5833,
      "build": 5834,
      "HTML": 5835,
      "ĠSan": 5836,
      "Ġcountries": 5837,
      "aled": 5838,
      "token": 5839,
      "kt": 5840,
      "Ġqual": 5841,
      "Last": 5842,
      "adow": 5843,
      "Ġmanufact": 5844,
      "idad": 5845,
      "jango": 5846,
      "Next": 5847,
      "xf": 5848,
      ".a": 5849,
      "Ġporno": 5850,
      "ĠPM": 5851,
      "erve": 5852,
      "iting": 5853,
      "_th": 5854,
      "ci": 5855,
      "=None": 5856,
      "gs": 5857,
      "Ġlogin": 5858,
      "atives": 5859,
      "']);Ċ": 5860,
      "Äħ": 5861,
      "Ġill": 5862,
      "IA": 5863,
      "children": 5864,
      "DO": 5865,
      "Ġlevels": 5866,
      "Ġ{{": 5867,
      "Ġlooks": 5868,
      "Ġ\"#": 5869,
      "ToString": 5870,
      "Ġnecessary": 5871,
      "ĠĠĠĊ": 5872,
      "cell": 5873,
      "Entry": 5874,
      "Ġ'#": 5875,
      "Ġextrem": 5876,
      "Selector": 5877,
      "Ġplaceholder": 5878,
      "Load": 5879,
      "Ġreleased": 5880,
      "ORE": 5881,
      "Enumer": 5882,
      "ĠTV": 5883,
      "SET": 5884,
      "inq": 5885,
      "Press": 5886,
      "ĠDepartment": 5887,
      "Ġproperties": 5888,
      "Ġrespond": 5889,
      "Search": 5890,
      "ael": 5891,
      "Ġrequ": 5892,
      "ĠBook": 5893,
      "/Ċ": 5894,
      "(st": 5895,
      "Ġfinancial": 5896,
      "icket": 5897,
      "_input": 5898,
      "Ġthreat": 5899,
      "(in": 5900,
      "Strip": 5901,
      "ìĿ": 5902,
      "Ã§Ã£o": 5903,
      "Ġevidence": 5904,
      "));": 5905,
      "ĠBro": 5906,
      "Ġ[];Ċ": 5907,
      "Ġou": 5908,
      "buf": 5909,
      "Script": 5910,
      "dat": 5911,
      "Ġrule": 5912,
      "#import": 5913,
      "=\"/": 5914,
      "Serial": 5915,
      "Ġstarting": 5916,
      "[index": 5917,
      "ae": 5918,
      "Ġcontrib": 5919,
      "session": 5920,
      "_new": 5921,
      "utable": 5922,
      "ober": 5923,
      "Ġ\"./": 5924,
      "Ġlogger": 5925,
      "Ġrecently": 5926,
      "Ġreturned": 5927,
      "ččĊ": 5928,
      ")))Ċ": 5929,
      "itions": 5930,
      "Ġseek": 5931,
      "Ġcommunic": 5932,
      "Ġ\".": 5933,
      "Ġusername": 5934,
      "ECT": 5935,
      "DS": 5936,
      "Ġotherwise": 5937,
      "ĠGerman": 5938,
      ".aw": 5939,
      "Adapter": 5940,
      "ixel": 5941,
      "Ġsystems": 5942,
      "Ġdrop": 5943,
      "Ġstructure": 5944,
      "Ġ$(\"#": 5945,
      "encies": 5946,
      "anning": 5947,
      "ĠLink": 5948,
      "ĠResponse": 5949,
      "Ġstri": 5950,
      "Å¼": 5951,
      "ĠDB": 5952,
      "æĹ": 5953,
      "android": 5954,
      "submit": 5955,
      "otion": 5956,
      "(@": 5957,
      ".test": 5958,
      "ĊĊĊĊĊĊĊĊ": 5959,
      "];čĊ": 5960,
      "Ġdirectly": 5961,
      "Ġ\"%": 5962,
      "ris": 5963,
      "elta": 5964,
      "AIL": 5965,
      "){čĊ": 5966,
      "mine": 5967,
      "ĠĠĠĠĠĠĠĠĠĠĠĠĠĠĠĠĠĠĠĠĠĠĠĠĠĠ": 5968,
      "(k": 5969,
      "bon": 5970,
      "asic": 5971,
      "pite": 5972,
      "___": 5973,
      "Max": 5974,
      "Ġerrors": 5975,
      "ĠWhile": 5976,
      "Ġarguments": 5977,
      "Ġensure": 5978,
      "Right": 5979,
      "-based": 5980,
      "Web": 5981,
      "Ġ-=": 5982,
      "Ġintrodu": 5983,
      "ĠInst": 5984,
      "ĠWash": 5985,
      "ordin": 5986,
      "join": 5987,
      "Database": 5988,
      "Ġgrad": 5989,
      "Ġusually": 5990,
      "ITE": 5991,
      "Props": 5992,
      "?>Ċ": 5993,
      "ĠGo": 5994,
      "@Override": 5995,
      "REF": 5996,
      "Ġip": 5997,
      "ĠAustral": 5998,
      "Ġist": 5999,
      "ViewById": 6000,
      "Ġserious": 6001,
      "Ġcustomer": 6002,
      ".prototype": 6003,
      "odo": 6004,
      "cor": 6005,
      "Ġdoor": 6006,
      "ĠWITHOUT": 6007,
      "Ġplant": 6008,
      "Ġbegan": 6009,
      "Ġdistance": 6010,
      "()).": 6011,
      "Ġchance": 6012,
      "Ġord": 6013,
      "came": 6014,
      "pragma": 6015,
      "Ġprotect": 6016,
      "ragment": 6017,
      "ĠNode": 6018,
      "ening": 6019,
      "Ñĩ": 6020,
      "Ġroute": 6021,
      "ĠSchool": 6022,
      "hi": 6023,
      "Ġneighb": 6024,
      "After": 6025,
      "licit": 6026,
      "Ġcontr": 6027,
      "Ġprimary": 6028,
      "AA": 6029,
      ".WriteLine": 6030,
      "utils": 6031,
      "Ġbi": 6032,
      "Red": 6033,
      ".Linq": 6034,
      ".object": 6035,
      "Ġleaders": 6036,
      "unities": 6037,
      "Ġgun": 6038,
      "onth": 6039,
      "ĠDev": 6040,
      "FILE": 6041,
      "Ġcomments": 6042,
      "_len": 6043,
      "arrow": 6044,
      "amount": 6045,
      "Range": 6046,
      "sert": 6047,
      "GridView": 6048,
      "Ġupdated": 6049,
      "ĠMo": 6050,
      "Ġinform": 6051,
      "ociety": 6052,
      "ala": 6053,
      "Access": 6054,
      "Ġhab": 6055,
      "Ġcreat": 6056,
      "_arg": 6057,
      "ĠJanuary": 6058,
      "ĠDay": 6059,
      "\")čĊ": 6060,
      "uple": 6061,
      "document": 6062,
      "gorith": 6063,
      "menu": 6064,
      "ĠOver": 6065,
      "bb": 6066,
      ".title": 6067,
      "_out": 6068,
      "Ġled": 6069,
      "uri": 6070,
      "Ġ?></": 6071,
      "gl": 6072,
      "Ġbank": 6073,
      "ayment": 6074,
      "ĉprintf": 6075,
      "MD": 6076,
      "Ġsample": 6077,
      "Ġhands": 6078,
      "ĠVersion": 6079,
      "uario": 6080,
      "Ġoffers": 6081,
      "ityEngine": 6082,
      "Ġshape": 6083,
      "Ġsleep": 6084,
      "_point": 6085,
      "Settings": 6086,
      "Ġachie": 6087,
      "Ġsold": 6088,
      "ota": 6089,
      ".bind": 6090,
      "Am": 6091,
      "Ġsafe": 6092,
      "Store": 6093,
      "Ġshared": 6094,
      "Ġpriv": 6095,
      "_VAL": 6096,
      "Ġsens": 6097,
      "){": 6098,
      "Ġremember": 6099,
      "shared": 6100,
      "element": 6101,
      "Ġshoot": 6102,
      "Vert": 6103,
      "cout": 6104,
      "Ġenv": 6105,
      "_label": 6106,
      "Ġ>Ċ": 6107,
      "run": 6108,
      "Ġscene": 6109,
      "(array": 6110,
      "device": 6111,
      "_title": 6112,
      "agon": 6113,
      "]čĊ": 6114,
      "aby": 6115,
      "Ġbecame": 6116,
      "boolean": 6117,
      "Ġpark": 6118,
      "ĠCode": 6119,
      "upload": 6120,
      "riday": 6121,
      "ĠSeptember": 6122,
      "Fe": 6123,
      "Ġsen": 6124,
      "cing": 6125,
      "FL": 6126,
      "Col": 6127,
      "uts": 6128,
      "_page": 6129,
      "inn": 6130,
      "Ġimplied": 6131,
      "aling": 6132,
      "Ġyourself": 6133,
      ".Count": 6134,
      "conf": 6135,
      "Ġaud": 6136,
      "_init": 6137,
      ".)": 6138,
      "Ġwrote": 6139,
      "NG": 6140,
      ".Error": 6141,
      "ä»": 6142,
      ".for": 6143,
      "Ġequal": 6144,
      "ĠRequest": 6145,
      "Ġserial": 6146,
      "Ġallows": 6147,
      "XX": 6148,
      "Ġmiddle": 6149,
      "chor": 6150,
      "Ã¸": 6151,
      "erval": 6152,
      ".Column": 6153,
      "reading": 6154,
      "Ġescort": 6155,
      "ĠAugust": 6156,
      "Ġquickly": 6157,
      "Ġweap": 6158,
      "ĠCG": 6159,
      "ropri": 6160,
      "ho": 6161,
      "Ġcop": 6162,
      "(struct": 6163,
      "ĠBig": 6164,
      "Ġvs": 6165,
      "Ġfrequ": 6166,
      ".Value": 6167,
      "Ġactions": 6168,
      "Ġproper": 6169,
      "Ġinn": 6170,
      "Ġobjects": 6171,
      "Ġmatrix": 6172,
      "avascript": 6173,
      "Ġones": 6174,
      ".group": 6175,
      "Ġgreen": 6176,
      "Ġpaint": 6177,
      "ools": 6178,
      "ycl": 6179,
      "encode": 6180,
      "olt": 6181,
      "comment": 6182,
      ".api": 6183,
      "Dir": 6184,
      "Ġune": 6185,
      "izont": 6186,
      ".position": 6187,
      "Ġdesigned": 6188,
      "_val": 6189,
      "avi": 6190,
      "iring": 6191,
      "tab": 6192,
      "Ġlayer": 6193,
      "Ġviews": 6194,
      "Ġreve": 6195,
      "rael": 6196,
      "ĠON": 6197,
      "rics": 6198,
      "np": 6199,
      "Ġcore": 6200,
      "());čĊ": 6201,
      "Main": 6202,
      "Ġexpert": 6203,
      "ĉĉčĊ": 6204,
      "_en": 6205,
      "Ġ/>": 6206,
      "utter": 6207,
      "IAL": 6208,
      "ails": 6209,
      "ĠKing": 6210,
      "*/ĊĊ": 6211,
      "ĠMet": 6212,
      "_end": 6213,
      "addr": 6214,
      "ora": 6215,
      "Ġir": 6216,
      "Min": 6217,
      "Ġsurpr": 6218,
      "Ġrepe": 6219,
      "Ġdirectory": 6220,
      "PUT": 6221,
      "-S": 6222,
      "Ġelection": 6223,
      "haps": 6224,
      ".pre": 6225,
      "cm": 6226,
      "Values": 6227,
      "Ġ\"Ċ": 6228,
      "column": 6229,
      "ivil": 6230,
      "Login": 6231,
      "inue": 6232,
      "Ġbeautiful": 6233,
      "Ġsecret": 6234,
      "(event": 6235,
      "Ġchat": 6236,
      "ums": 6237,
      "Ġorigin": 6238,
      "Ġeffects": 6239,
      "Ġmanagement": 6240,
      "illa": 6241,
      "tk": 6242,
      "Ġsetting": 6243,
      "ĠCour": 6244,
      "Ġmassage": 6245,
      "ĉend": 6246,
      "Ġhappy": 6247,
      "Ġfinish": 6248,
      "Ġcamera": 6249,
      "ĠVer": 6250,
      "ĠDemocr": 6251,
      "ĠHer": 6252,
      "(Q": 6253,
      "cons": 6254,
      "ita": 6255,
      "Ġ'.": 6256,
      "{}": 6257,
      "ĉC": 6258,
      "Ġstuff": 6259,
      "Ġ:Ċ": 6260,
      "ĠAR": 6261,
      "Task": 6262,
      "hidden": 6263,
      "eros": 6264,
      "IGN": 6265,
      "atio": 6266,
      "ĠHealth": 6267,
      "olute": 6268,
      "Enter": 6269,
      "'>": 6270,
      "ĠTwitter": 6271,
      "ĠCounty": 6272,
      "scribe": 6273,
      "Ġ=>Ċ": 6274,
      "Ġhy": 6275,
      "fit": 6276,
      "Ġmilitary": 6277,
      "Ġsale": 6278,
      "required": 6279,
      "non": 6280,
      "bootstrap": 6281,
      "hold": 6282,
      "rim": 6283,
      "-old": 6284,
      "ĠDown": 6285,
      "Ġmention": 6286,
      "contact": 6287,
      "_group": 6288,
      "oday": 6289,
      "Ġtown": 6290,
      "Ġsolution": 6291,
      "uate": 6292,
      "elling": 6293,
      "]->": 6294,
      "otes": 6295,
      "ental": 6296,
      "omen": 6297,
      "ospital": 6298,
      "ĠSup": 6299,
      "_EN": 6300,
      "Ġslow": 6301,
      "SESSION": 6302,
      "Ġblue": 6303,
      "ago": 6304,
      "Ġlives": 6305,
      "Ġ^": 6306,
      ".un": 6307,
      "inst": 6308,
      "enge": 6309,
      "Ġcustomers": 6310,
      "Ġcast": 6311,
      "udget": 6312,
      "ï¼ģ": 6313,
      "icens": 6314,
      "Ġdetermin": 6315,
      "Selected": 6316,
      "_pl": 6317,
      "ueue": 6318,
      "Ġdark": 6319,
      "//ĊĊ": 6320,
      "si": 6321,
      "thern": 6322,
      "ĠJapan": 6323,
      "/w": 6324,
      "PU": 6325,
      "ĠEast": 6326,
      "ovie": 6327,
      "Ġpackage": 6328,
      "Ġnor": 6329,
      "Ġapi": 6330,
      "bot": 6331,
      "\"];Ċ": 6332,
      "_post": 6333,
      "ulate": 6334,
      "Ġclub": 6335,
      "'));Ċ": 6336,
      "Ġloop": 6337,
      "PIO": 6338,
      "ione": 6339,
      "shot": 6340,
      "Initial": 6341,
      "Ġplayed": 6342,
      "register": 6343,
      "rought": 6344,
      "_max": 6345,
      "acement": 6346,
      "match": 6347,
      "raphics": 6348,
      "AST": 6349,
      "Ġexisting": 6350,
      "Ġcomplex": 6351,
      "DA": 6352,
      ".Ch": 6353,
      ".common": 6354,
      "mo": 6355,
      "Ġ'../../": 6356,
      "ito": 6357,
      "Ġanalysis": 6358,
      "Ġdeliver": 6359,
      "ĠĠĠĠĠĠĠĠĠĠĠĠĠĠĠĠĊ": 6360,
      "idx": 6361,
      "Ãł": 6362,
      "ongo": 6363,
      "ĠEnglish": 6364,
      "<!--": 6365,
      "Ġcomputer": 6366,
      "ENSE": 6367,
      "Ġpas": 6368,
      "Ġrais": 6369,
      "Hash": 6370,
      "Ġmobile": 6371,
      "Ġowner": 6372,
      "FIG": 6373,
      "ĠĠĠĠĠĠĠĠĠĠĠĠĠĠĠĠĠĠĠĠĠĠĠĠĠĠĠĠĠĠĠĠĠĠĠĠĠĠĠĠĠĠĠĠĠĠĠĠĠĠĠ": 6374,
      "thes": 6375,
      "Ġattr": 6376,
      "wd": 6377,
      ".time": 6378,
      "awn": 6379,
      "Ġtreatment": 6380,
      "ĠAc": 6381,
      ".View": 6382,
      "impl": 6383,
      "more": 6384,
      "pass": 6385,
      "Ġha": 6386,
      ".from": 6387,
      "Ġleading": 6388,
      "FFFF": 6389,
      "(error": 6390,
      ".ui": 6391,
      "atar": 6392,
      "aders": 6393,
      "dates": 6394,
      "Ġzu": 6395,
      "Ġflow": 6396,
      "Target": 6397,
      "Ġinvolved": 6398,
      "Ġio": 6399,
      "parse": 6400,
      "$_": 6401,
      "hest": 6402,
      ".int": 6403,
      "-item": 6404,
      "asy": 6405,
      "Sp": 6406,
      "Ġshift": 6407,
      "NT": 6408,
      "Ġtf": 6409,
      "_TR": 6410,
      ".web": 6411,
      "CS": 6412,
      "Ġ})": 6413,
      "Ġeyes": 6414,
      "_z": 6415,
      "');čĊ": 6416,
      "iforn": 6417,
      "Ġ{@": 6418,
      "Ġnice": 6419,
      ".list": 6420,
      "ĠĠĠĠčĊ": 6421,
      "Ġfloor": 6422,
      "Ġredirect": 6423,
      "ĠUK": 6424,
      "(['": 6425,
      "Ġwish": 6426,
      "Ġcapt": 6427,
      "legal": 6428,
      "ĠIO": 6429,
      "Ġstage": 6430,
      ".String": 6431,
      "ĠAfr": 6432,
      "igen": 6433,
      "ĠSH": 6434,
      "Delete": 6435,
      "ells": 6436,
      "Ġsolid": 6437,
      "Ġmeeting": 6438,
      "Ġworked": 6439,
      "Ġeditor": 6440,
      "iny": 6441,
      "Ð¼": 6442,
      "_read": 6443,
      ".Id": 6444,
      "eff": 6445,
      "Offset": 6446,
      "cha": 6447,
      "USER": 6448,
      "ĉĉĠĠĠ": 6449,
      "ipped": 6450,
      "Ġdict": 6451,
      "ĠRun": 6452,
      ".hpp": 6453,
      "Ġang": 6454,
      "xml": 6455,
      "imple": 6456,
      "Ġmedical": 6457,
      "_token": 6458,
      "connect": 6459,
      "Ġhour": 6460,
      "Ġcontroller": 6461,
      "_message": 6462,
      "UID": 6463,
      "Gr": 6464,
      "anded": 6465,
      "_CH": 6466,
      "Ġbooks": 6467,
      "Ġspeak": 6468,
      "aming": 6469,
      "Ġmount": 6470,
      "Record": 6471,
      "ĉstruct": 6472,
      ".Web": 6473,
      "ondon": 6474,
      "Ġ//Ċ": 6475,
      "Ġfelt": 6476,
      ".Auto": 6477,
      "idge": 6478,
      "_pos": 6479,
      "PR": 6480,
      "Ġmodern": 6481,
      "Collection": 6482,
      "_msg": 6483,
      "CD": 6484,
      "ĠLo": 6485,
      "Ġseconds": 6486,
      "ibly": 6487,
      ".equals": 6488,
      "Ġinternational": 6489,
      "#pragma": 6490,
      "ooth": 6491,
      "Writer": 6492,
      "iate": 6493,
      "Ġcele": 6494,
      "ĠBit": 6495,
      "ivo": 6496,
      "ivery": 6497,
      "rd": 6498,
      "HECK": 6499,
      "Ġcache": 6500,
      ".count": 6501,
      "Ġroll": 6502,
      ".Read": 6503,
      "RED": 6504,
      "Ġsetup": 6505,
      "izontal": 6506,
      "models": 6507,
      "argv": 6508,
      "Ġconsidered": 6509,
      "=\"../": 6510,
      "settings": 6511,
      "ĠRel": 6512,
      "Ġgrowth": 6513,
      "Ġmix": 6514,
      "ĠWashington": 6515,
      "Ġplt": 6516,
      "ĠIM": 6517,
      "áº": 6518,
      "Ġturned": 6519,
      "ĠDateTime": 6520,
      "ĠWed": 6521,
      "(url": 6522,
      "Ġ\"-": 6523,
      "Ġletter": 6524,
      "Async": 6525,
      "ĠĠĠĠĠĠĠĠĠĠĠĠĠĠĠĠĠĠĠĠĠĠĠĠĠĠĠĠ": 6526,
      "ĠOctober": 6527,
      "_line": 6528,
      "Ġattention": 6529,
      "Ġcollect": 6530,
      "ĠHash": 6531,
      "Ġimag": 6532,
      "Tree": 6533,
      "Ġsituation": 6534,
      "ette": 6535,
      "_no": 6536,
      "IVE": 6537,
      "Ġvon": 6538,
      ".target": 6539,
      "Ġknowledge": 6540,
      "Ġdrive": 6541,
      ".post": 6542,
      "Ġblood": 6543,
      "Ġcit": 6544,
      "primary": 6545,
      "Ġconfiguration": 6546,
      "tee": 6547,
      "Ġphoto": 6548,
      "isode": 6549,
      "Trace": 6550,
      "Ġgave": 6551,
      "Ġshot": 6552,
      "ĠAir": 6553,
      "Ġmother": 6554,
      "price": 6555,
      "Ġmorning": 6556,
      ")){Ċ": 6557,
      "-x": 6558,
      "Ġtrade": 6559,
      "Ġdesc": 6560,
      "Ġ&&Ċ": 6561,
      "Ġparents": 6562,
      "Api": 6563,
      "åĪ": 6564,
      "ted": 6565,
      "wer": 6566,
      "Ġæ": 6567,
      "Ġsy": 6568,
      "ĠKe": 6569,
      "Parser": 6570,
      "åħ": 6571,
      "ancy": 6572,
      "Ġpiece": 6573,
      "ifornia": 6574,
      "toString": 6575,
      "ran": 6576,
      "iding": 6577,
      "PTION": 6578,
      "comes": 6579,
      "/lic": 6580,
      ".client": 6581,
      "El": 6582,
      "Long": 6583,
      "Ġprofessional": 6584,
      "rupt": 6585,
      "va": 6586,
      "Ġcompletely": 6587,
      "Ġpractice": 6588,
      "Ġselection": 6589,
      "Rem": 6590,
      "ini": 6591,
      "Ġcam": 6592,
      "REE": 6593,
      "Ġsites": 6594,
      "pa": 6595,
      "ATUS": 6596,
      "ÑģÑĤ": 6597,
      "arrant": 6598,
      "*(": 6599,
      "_KEY": 6600,
      "ĠButton": 6601,
      "ĠFriday": 6602,
      "sequ": 6603,
      "Ġreader": 6604,
      "Ġmessages": 6605,
      "è¯": 6606,
      "Ġbuf": 6607,
      "Ke": 6608,
      "Ġnov": 6609,
      "HP": 6610,
      "Msg": 6611,
      "align": 6612,
      "arily": 6613,
      "Ġ',": 6614,
      "_with": 6615,
      "Ġdas": 6616,
      "Ġheard": 6617,
      "atomic": 6618,
      "rial": 6619,
      ")[": 6620,
      "Ġdise": 6621,
      "@end": 6622,
      "Ġgold": 6623,
      "Ġfair": 6624,
      "Ġsales": 6625,
      ".Button": 6626,
      "strict": 6627,
      "save": 6628,
      "Ġmeasure": 6629,
      "Ġ\"+": 6630,
      "ecause": 6631,
      "ViewController": 6632,
      "ĠTable": 6633,
      ".param": 6634,
      "Ġdecided": 6635,
      "(((": 6636,
      "INFO": 6637,
      "Ġopportunity": 6638,
      "Te": 6639,
      "ICENSE": 6640,
      "ccording": 6641,
      "ki": 6642,
      "ĠUN": 6643,
      "Ġcontain": 6644,
      "Ġmanager": 6645,
      "Ġpain": 6646,
      "ĠFire": 6647,
      "rome": 6648,
      "Ġplans": 6649,
      "Found": 6650,
      "lay": 6651,
      "ĠDecember": 6652,
      "Ġinflu": 6653,
      "Ãº": 6654,
      "rench": 6655,
      "ĠĠĠĠĠĠĠĠĠĠĠĠĠĠĠĠĠĠĠĠĠĠĠĠĠĠĠĠĠĠĠĠĠ": 6656,
      "azing": 6657,
      "brief": 6658,
      "call": 6659,
      "wood": 6660,
      "Ġloaded": 6661,
      "Ġgrand": 6662,
      "/f": 6663,
      "imp": 6664,
      "_U": 6665,
      "STR": 6666,
      "âĢ¢": 6667,
      "Ġcredit": 6668,
      ".Color": 6669,
      "orge": 6670,
      "QUEST": 6671,
      "Ġdifference": 6672,
      "ĠPC": 6673,
      "wargs": 6674,
      "Ġpub": 6675,
      "unday": 6676,
      "Ġfra": 6677,
      ".max": 6678,
      "Ġtried": 6679,
      "annels": 6680,
      "send": 6681,
      "Ġreports": 6682,
      "Ġadult": 6683,
      "äº": 6684,
      "Ġconsist": 6685,
      "ĠStreet": 6686,
      "ĠProgram": 6687,
      "SQL": 6688,
      "Matrix": 6689,
      "ouncil": 6690,
      "-A": 6691,
      "ĉw": 6692,
      "Ġwhose": 6693,
      "Ġrelig": 6694,
      "ĠSex": 6695,
      "Ġgives": 6696,
      "none": 6697,
      ".message": 6698,
      "(G": 6699,
      ".awt": 6700,
      "-right": 6701,
      "ĠNovember": 6702,
      "ellig": 6703,
      "utive": 6704,
      "Äĥ": 6705,
      "overn": 6706,
      "Ġeasily": 6707,
      "Ġideas": 6708,
      "ĠÐ½": 6709,
      "/css": 6710,
      "lying": 6711,
      "elle": 6712,
      "Can": 6713,
      "_color": 6714,
      "Ð¾Ð²": 6715,
      "Ġpair": 6716,
      "ngth": 6717,
      "Ġsplit": 6718,
      "drop": 6719,
      "arty": 6720,
      "ona": 6721,
      "Ġcapital": 6722,
      "Ġhear": 6723,
      "Ġexists": 6724,
      "ĉlog": 6725,
      "emo": 6726,
      "Run": 6727,
      "oi": 6728,
      "Ġparser": 6729,
      "ĠMethod": 6730,
      "Ġeducation": 6731,
      "[k": 6732,
      "Ġlibrary": 6733,
      ">\";Ċ": 6734,
      "_UN": 6735,
      "ĉstd": 6736,
      "oded": 6737,
      "Ġcalls": 6738,
      "here": 6739,
      "Rel": 6740,
      "Ġbrand": 6741,
      "background": 6742,
      "ga": 6743,
      "_address": 6744,
      "_params": 6745,
      "Category": 6746,
      "ĠIndia": 6747,
      "_event": 6748,
      "Ġing": 6749,
      "Render": 6750,
      ".cl": 6751,
      "umpy": 6752,
      "Ġpet": 6753,
      "FC": 6754,
      "ĠAnt": 6755,
      "Ext": 6756,
      "Ġcharge": 6757,
      "ened": 6758,
      "grad": 6759,
      "EO": 6760,
      "Ġdepend": 6761,
      "Ġ.ĊĊ": 6762,
      "frame": 6763,
      "Ġdf": 6764,
      "Ġhuge": 6765,
      "ĠPART": 6766,
      "eds": 6767,
      ";;": 6768,
      "ĠAM": 6769,
      "Ġbasic": 6770,
      "ĠLet": 6771,
      "lich": 6772,
      "Ġarm": 6773,
      "Ġstar": 6774,
      "Ġfederal": 6775,
      "Work": 6776,
      "Ġcarry": 6777,
      "ĠIsrael": 6778,
      "(obj": 6779,
      "={{": 6780,
      "Ġsaved": 6781,
      "Ġsyn": 6782,
      "Ġconstant": 6783,
      "VENT": 6784,
      "Ġpositive": 6785,
      "Ġconduct": 6786,
      "Ġskin": 6787,
      "Ġearlier": 6788,
      "Ġlayout": 6789,
      "ĠIP": 6790,
      "OUR": 6791,
      "Ġtim": 6792,
      "stylesheet": 6793,
      "_cl": 6794,
      "ĠCard": 6795,
      "++){Ċ": 6796,
      "Ġtemper": 6797,
      "ĠDavid": 6798,
      "ĉtry": 6799,
      ".dart": 6800,
      "Ġwants": 6801,
      "Ġpicture": 6802,
      "Ġvideos": 6803,
      "ĠComm": 6804,
      "isions": 6805,
      "_MAX": 6806,
      "Mapping": 6807,
      "-content": 6808,
      "ĠEar": 6809,
      "-de": 6810,
      "Ġprem": 6811,
      "bruary": 6812,
      "Ġcomponents": 6813,
      "Ġthroughout": 6814,
      "Ġpull": 6815,
      "Ġpages": 6816,
      "ente": 6817,
      "respond": 6818,
      "Ġgas": 6819,
      "criptor": 6820,
      "Ġedge": 6821,
      "Ġbound": 6822,
      "ACT": 6823,
      "******": 6824,
      "Ġcreating": 6825,
      "ĠCH": 6826,
      "Ġnullptr": 6827,
      "Br": 6828,
      "+'": 6829,
      ".co": 6830,
      ">::": 6831,
      "Ġlearning": 6832,
      ".Length": 6833,
      "_SH": 6834,
      "Ġpatients": 6835,
      "AIN": 6836,
      "Ġkids": 6837,
      "Ġcomfort": 6838,
      "Ġshown": 6839,
      "ugins": 6840,
      "ĠBack": 6841,
      "ella": 6842,
      "_CL": 6843,
      "Ġlat": 6844,
      "Ġdispatch": 6845,
      "Ġclasses": 6846,
      ".at": 6847,
      ".begin": 6848,
      "Ġsuccessful": 6849,
      "ban": 6850,
      "Ġobtain": 6851,
      "ĠSl": 6852,
      "Ġlack": 6853,
      "iterator": 6854,
      "Thread": 6855,
      "(size": 6856,
      "Ġnone": 6857,
      ".has": 6858,
      "_X": 6859,
      "sort": 6860,
      "nap": 6861,
      "pet": 6862,
      "bin": 6863,
      "ĠCanada": 6864,
      "They": 6865,
      "Ġdans": 6866,
      "ĠMat": 6867,
      "<td": 6868,
      "Ġhair": 6869,
      "Ġ'',Ċ": 6870,
      "Ġcu": 6871,
      "Ġlaws": 6872,
      "leted": 6873,
      "ped": 6874,
      "Ġpow": 6875,
      "Ġknew": 6876,
      "_COM": 6877,
      "_,": 6878,
      "ĠMag": 6879,
      "idents": 6880,
      "(req": 6881,
      "Ġ),": 6882,
      "-center": 6883,
      "Ġwide": 6884,
      "ĠAuthor": 6885,
      "stants": 6886,
      "Ġjobs": 6887,
      "Ġmath": 6888,
      "etimes": 6889,
      "Boolean": 6890,
      "Ġscope": 6891,
      "_is": 6892,
      "Ġmeas": 6893,
      "Ġkeys": 6894,
      "elay": 6895,
      "Ġexactly": 6896,
      "'=>'": 6897,
      "ĠPaul": 6898,
      "mas": 6899,
      "ĉprint": 6900,
      "(len": 6901,
      "fd": 6902,
      "Ġ);": 6903,
      ".Event": 6904,
      "qli": 6905,
      "irit": 6906,
      "ields": 6907,
      "oman": 6908,
      "ĠTop": 6909,
      "Ġvote": 6910,
      "Ġmask": 6911,
      "Ġtheme": 6912,
      "-Ċ": 6913,
      "Ġprops": 6914,
      "Ġfine": 6915,
      "Ġwriter": 6916,
      "_offset": 6917,
      "car": 6918,
      "Ġaltern": 6919,
      "Ġcopyright": 6920,
      "Ġdestroy": 6921,
      "pper": 6922,
      "Ġgenerate": 6923,
      "pped": 6924,
      "âĢĻd": 6925,
      "ĠĠĠĠĠĠĊ": 6926,
      "make": 6927,
      "ĠShow": 6928,
      "Ġbrowser": 6929,
      "Ġfavorite": 6930,
      "Ġcareer": 6931,
      "Ġhappened": 6932,
      "(char": 6933,
      "Ġrecommend": 6934,
      "Ġliter": 6935,
      ".filter": 6936,
      "grade": 6937,
      "ĠÂ£": 6938,
      "Phone": 6939,
      "oms": 6940,
      "Ġnamed": 6941,
      "-label": 6942,
      "ipo": 6943,
      "ĠOther": 6944,
      "Ġpanel": 6945,
      "Ġrock": 6946,
      "Scale": 6947,
      "ĉassert": 6948,
      "Ð´": 6949,
      "Ġtrust": 6950,
      "front": 6951,
      "Ġdemon": 6952,
      "Ar": 6953,
      "Net": 6954,
      "Ġeconomic": 6955,
      "footer": 6956,
      "Ġrace": 6957,
      "(node": 6958,
      "ĠOption": 6959,
      "split": 6960,
      "Ġphysical": 6961,
      "ifest": 6962,
      "Ġremoved": 6963,
      ".http": 6964,
      ")),Ċ": 6965,
      "Ġlooked": 6966,
      "';": 6967,
      "ding": 6968,
      "gest": 6969,
      "aturday": 6970,
      "/licenses": 6971,
      "Price": 6972,
      "Ġdro": 6973,
      "Ġtowards": 6974,
      "Ġuns": 6975,
      "ĠCL": 6976,
      "ĉstatic": 6977,
      "Ġrows": 6978,
      "Ġdefine": 6979,
      ".replace": 6980,
      "Ġfather": 6981,
      "ĠDesign": 6982,
      "assign": 6983,
      "mut": 6984,
      "Device": 6985,
      "Did": 6986,
      "'))Ċ": 6987,
      "ometry": 6988,
      "ayload": 6989,
      "Ġhistor": 6990,
      "ĠParam": 6991,
      "ĠBoolean": 6992,
      "Ġnature": 6993,
      "Ġjs": 6994,
      "Ġnation": 6995,
      "ih": 6996,
      "Ġdiscover": 6997,
      "sem": 6998,
      "Handle": 6999,
      "ĉr": 7000,
      "ĠTechn": 7001,
      "Ġwall": 7002,
      "{$": 7003,
      "@property": 7004,
      "Ġ\"../": 7005,
      "Ġexam": 7006,
      ".draw": 7007,
      "opping": 7008,
      "Ġnearly": 7009,
      "Ġcool": 7010,
      "Ġindepend": 7011,
      "RES": 7012,
      "Ġhandler": 7013,
      "ĠMonday": 7014,
      "Ġsun": 7015,
      "Styles": 7016,
      "ously": 7017,
      "Ġĉ": 7018,
      "vest": 7019,
      "Display": 7020,
      "(y": 7021,
      "atically": 7022,
      "Ġpredict": 7023,
      "ying": 7024,
      "Ġsometimes": 7025,
      "\"]Ċ": 7026,
      "Ġdrink": 7027,
      "Ġbul": 7028,
      "ifications": 7029,
      ".insert": 7030,
      ".reg": 7031,
      "Ġtests": 7032,
      "Alignment": 7033,
      "Ġalleg": 7034,
      "Ġattribute": 7035,
      "ĠNote": 7036,
      "Ġmyself": 7037,
      "arts": 7038,
      "Now": 7039,
      "Ġinteresting": 7040,
      "lients": 7041,
      "Ġpopulation": 7042,
      "ĠCalifornia": 7043,
      "\"I": 7044,
      "å¹": 7045,
      "Ġgreater": 7046,
      "uesday": 7047,
      "Ġthous": 7048,
      "Ġcosts": 7049,
      "Ġlaunch": 7050,
      "\\Http": 7051,
      "ker": 7052,
      "band": 7053,
      "ĠPlay": 7054,
      "Ġband": 7055,
      ".shape": 7056,
      "esome": 7057,
      "article": 7058,
      ".rf": 7059,
      "Ġwer": 7060,
      "Ã¡s": 7061,
      "embers": 7062,
      "usr": 7063,
      "BA": 7064,
      "ican": 7065,
      "ett": 7066,
      "validate": 7067,
      "ulti": 7068,
      "Ġimmediately": 7069,
      "zer": 7070,
      "Ġfigure": 7071,
      "oes": 7072,
      "eller": 7073,
      "ircle": 7074,
      "ĠSign": 7075,
      ".db": 7076,
      "Ġrank": 7077,
      "Bytes": 7078,
      "Ġprojects": 7079,
      "_rec": 7080,
      "ULAR": 7081,
      "API": 7082,
      "ĠLine": 7083,
      "Port": 7084,
      "Ġpoll": 7085,
      "Ġgiving": 7086,
      "idence": 7087,
      "--Ċ": 7088,
      "Ġplot": 7089,
      "icial": 7090,
      "Ġwarrant": 7091,
      "ITION": 7092,
      "ĠDouble": 7093,
      "Ġbillion": 7094,
      "gorithm": 7095,
      "Ġequipment": 7096,
      "DATE": 7097,
      "Ġ@\"": 7098,
      "EE": 7099,
      "Ġple": 7100,
      "iation": 7101,
      "Ġheaders": 7102,
      "Ġproced": 7103,
      ".ComponentModel": 7104,
      "ĠObama": 7105,
      "Ġpa": 7106,
      "ĠBest": 7107,
      "imately": 7108,
      ".getString": 7109,
      ".\\": 7110,
      "mploy": 7111,
      "Ġraw": 7112,
      "_block": 7113,
      "undred": 7114,
      "\"},Ċ": 7115,
      ".GroupLayout": 7116,
      "Ġbrought": 7117,
      "NSString": 7118,
      "throw": 7119,
      "created": 7120,
      ".New": 7121,
      "_view": 7122,
      "CP": 7123,
      "eps": 7124,
      "Op": 7125,
      "Ġgratis": 7126,
      "Ġ'\"": 7127,
      "Ġinterview": 7128,
      "\"\"\"Ċ": 7129,
      "Ġpartial": 7130,
      "Ġaria": 7131,
      "bing": 7132,
      "Author": 7133,
      "Book": 7134,
      "ĠPat": 7135,
      "uman": 7136,
      "Users": 7137,
      "plus": 7138,
      "ĠDirect": 7139,
      "venue": 7140,
      "alpha": 7141,
      "UCCESS": 7142,
      "ĠCall": 7143,
      "Ġ);čĊ": 7144,
      "imated": 7145,
      "Ġremain": 7146,
      "Ġanti": 7147,
      "ĠLondon": 7148,
      "Ġsafety": 7149,
      "POSE": 7150,
      "oles": 7151,
      "controller": 7152,
      "Byte": 7153,
      "ĠCourt": 7154,
      "ĠPhil": 7155,
      "ĠAssoci": 7156,
      "ena": 7157,
      "åĲ": 7158,
      "_STR": 7159,
      "coin": 7160,
      "reshold": 7161,
      "Ġbatch": 7162,
      "_Click": 7163,
      "entication": 7164,
      ">';Ċ": 7165,
      "enty": 7166,
      "Ġbeginning": 7167,
      "Ġzero": 7168,
      "ĠConvert": 7169,
      "Ġterr": 7170,
      "Ġpaid": 7171,
      "Ġincreased": 7172,
      "catch": 7173,
      "-size": 7174,
      "activity": 7175,
      "equals": 7176,
      "Ġqueue": 7177,
      "Ġ\"'": 7178,
      "ĠInternational": 7179,
      "ĠfÃ¼r": 7180,
      "ursday": 7181,
      "Ġscient": 7182,
      "allow": 7183,
      "axis": 7184,
      "Ġappropri": 7185,
      "edge": 7186,
      "Ġidx": 7187,
      "Success": 7188,
      "entifier": 7189,
      ":\\": 7190,
      "xis": 7191,
      "Ġmaximum": 7192,
      "arks": 7193,
      "Ġbirth": 7194,
      "(index": 7195,
      "Ġmaybe": 7196,
      ".py": 7197,
      "files": 7198,
      "Ġlimited": 7199,
      "_check": 7200,
      "look": 7201,
      "plies": 7202,
      "Ġmovement": 7203,
      "'].": 7204,
      "Ġbroad": 7205,
      "ĠBE": 7206,
      "ĠUnityEngine": 7207,
      ".cpp": 7208,
      "ĠEvery": 7209,
      "Admin": 7210,
      "Ġfans": 7211,
      "pared": 7212,
      "ĊĠĠĠĠĊ": 7213,
      "Ġforeign": 7214,
      "Ġpan": 7215,
      "Ġtour": 7216,
      "ĠOrder": 7217,
      "Ġmoving": 7218,
      "Ġauf": 7219,
      "Call": 7220,
      "cb": 7221,
      "ÅŁ": 7222,
      "ventory": 7223,
      "ĠSql": 7224,
      "Ġfully": 7225,
      "ClickListener": 7226,
      "WORD": 7227,
      "Ġannounced": 7228,
      ")čĊčĊ": 7229,
      "Ġagreed": 7230,
      "rie": 7231,
      "Ġearn": 7232,
      "_link": 7233,
      ".array": 7234,
      "(text": 7235,
      "Ġmaterials": 7236,
      ",p": 7237,
      "ffff": 7238,
      "vg": 7239,
      "ĠÂ©": 7240,
      "Ġunless": 7241,
      "ajax": 7242,
      "LOG": 7243,
      "Ġsexual": 7244,
      "Ġ\\\"": 7245,
      "-time": 7246,
      "Ġcoach": 7247,
      "Ġsupported": 7248,
      "Ġphotos": 7249,
      "iform": 7250,
      ".Create": 7251,
      ")]": 7252,
      "rier": 7253,
      "Ġdialog": 7254,
      "aver": 7255,
      "ige": 7256,
      ")+": 7257,
      "_idx": 7258,
      ":[": 7259,
      "_min": 7260,
      "ĠCong": 7261,
      "Ġpressure": 7262,
      "Ġteams": 7263,
      "Sign": 7264,
      "begin": 7265,
      "rian": 7266,
      "NESS": 7267,
      "LS": 7268,
      "Ġimprove": 7269,
      "ĠSunday": 7270,
      "Ġdefinition": 7271,
      "iger": 7272,
      "rollers": 7273,
      "Ġthinking": 7274,
      "Template": 7275,
      "-F": 7276,
      "Ġemerg": 7277,
      "plates": 7278,
      "ĠUSA": 7279,
      ".setState": 7280,
      "ĠAlso": 7281,
      "rev": 7282,
      "Ġenable": 7283,
      "ĠCO": 7284,
      "PECT": 7285,
      "Ġconcept": 7286,
      ")-": 7287,
      "ĠâĢ¢": 7288,
      "Ġsets": 7289,
      "Ġmeaning": 7290,
      "emon": 7291,
      "ĠCons": 7292,
      "cmp": 7293,
      "eder": 7294,
      "anned": 7295,
      "icensed": 7296,
      "ĠSuper": 7297,
      "Ġdaily": 7298,
      "Ġmulti": 7299,
      "_u": 7300,
      "Ġchalleng": 7301,
      "_mode": 7302,
      "ĠPromise": 7303,
      "Ġstrict": 7304,
      "jo": 7305,
      "inton": 7306,
      "(list": 7307,
      "Only": 7308,
      ">{": 7309,
      "Ġvehicle": 7310,
      "íķ": 7311,
      "ĠPlayer": 7312,
      "ĠDel": 7313,
      "Ġpool": 7314,
      ".url": 7315,
      "nesday": 7316,
      "();čĊčĊ": 7317,
      "Ġ\");Ċ": 7318,
      "Local": 7319,
      ".\");Ċ": 7320,
      "Ġorganization": 7321,
      "render": 7322,
      "ĠApplication": 7323,
      "Ġsummer": 7324,
      "expected": 7325,
      "NA": 7326,
      "Ġrap": 7327,
      "_obj": 7328,
      "Ġsurface": 7329,
      "ĠPUR": 7330,
      "Ġ},ĊĊ": 7331,
      "Ġvariables": 7332,
      "(message": 7333,
      "Ġopin": 7334,
      ".back": 7335,
      "Ð°Ð½": 7336,
      "Ġworkers": 7337,
      "vm": 7338,
      "Co": 7339,
      "ughter": 7340,
      "Ġmaster": 7341,
      "Ġ\"\",": 7342,
      "Ġstories": 7343,
      ".User": 7344,
      "Ġcelebr": 7345,
      "inese": 7346,
      "BS": 7347,
      "ĠCommand": 7348,
      "ashboard": 7349,
      "Ġog": 7350,
      "kg": 7351,
      ".image": 7352,
      ".style": 7353,
      "Ġsteps": 7354,
      "ĠBen": 7355,
      "(args": 7356,
      "ĠPerson": 7357,
      ",y": 7358,
      "Ġofficials": 7359,
      "|Ċ": 7360,
      "Ġskills": 7361,
      "vc": 7362,
      "Ġbuilder": 7363,
      "Ġgar": 7364,
      "Account": 7365,
      "ĠAuth": 7366,
      "çĶ": 7367,
      "'])Ċ": 7368,
      "ĠAT": 7369,
      "nn": 7370,
      ".Int": 7371,
      "SSERT": 7372,
      "Ġeffective": 7373,
      "LETE": 7374,
      "Ġtools": 7375,
      "ARD": 7376,
      "Ġdigital": 7377,
      "Double": 7378,
      "ĠFind": 7379,
      "RC": 7380,
      "Ġinline": 7381,
      "/r": 7382,
      "ARAM": 7383,
      "ASK": 7384,
      "Ġintent": 7385,
      "aight": 7386,
      "_addr": 7387,
      "Ġrequests": 7388,
      ".first": 7389,
      "Ġdebug": 7390,
      "Ġspent": 7391,
      "()));Ċ": 7392,
      "ÅĽ": 7393,
      "Ġprincip": 7394,
      "Logger": 7395,
      "cludes": 7396,
      ".use": 7397,
      "Ġsurv": 7398,
      "media": 7399,
      "ĠFebruary": 7400,
      "ĠMac": 7401,
      "Ġmissing": 7402,
      "Ġwife": 7403,
      "Ġtalking": 7404,
      "ĠMake": 7405,
      "Ġcart": 7406,
      "Ġlocated": 7407,
      "Enc": 7408,
      "-a": 7409,
      "chron": 7410,
      "Ġcards": 7411,
      "Ġguy": 7412,
      "Ġpers": 7413,
      "ĠYes": 7414,
      "atever": 7415,
      "ĠAng": 7416,
      "olar": 7417,
      "ĠEven": 7418,
      "Ġaccur": 7419,
      "ĠPower": 7420,
      "ĠGold": 7421,
      "clear": 7422,
      "Process": 7423,
      "Ġrecords": 7424,
      "Ġkilled": 7425,
      ".clear": 7426,
      "ĠWARRANTIES": 7427,
      "Ġpurpose": 7428,
      "panel": 7429,
      "JECT": 7430,
      "ÃŃa": 7431,
      "Ġexerc": 7432,
      "WS": 7433,
      "/L": 7434,
      ".exports": 7435,
      "Ġ___": 7436,
      "Ġsin": 7437,
      "Servlet": 7438,
      "ĠdÃ©": 7439,
      ".delete": 7440,
      "roke": 7441,
      "Sl": 7442,
      "ugh": 7443,
      "ears": 7444,
      "Ġpointer": 7445,
      "Ġhop": 7446,
      "allery": 7447,
      "Ġobs": 7448,
      "covery": 7449,
      "ĉchar": 7450,
      "ĉĉĉĉĉĉĉĉĉĉ": 7451,
      "ĉdef": 7452,
      "ocity": 7453,
      "itchen": 7454,
      "ulations": 7455,
      "ĠFIT": 7456,
      "Ġ).": 7457,
      "straints": 7458,
      "vention": 7459,
      "Ġrequires": 7460,
      "ĠOper": 7461,
      "ME": 7462,
      "OUNT": 7463,
      "allet": 7464,
      "Ġnorm": 7465,
      "IRE": 7466,
      "exas": 7467,
      "Ġprograms": 7468,
      "Ġweak": 7469,
      "'.$": 7470,
      "uing": 7471,
      "ĉĠĠĠĠĠĠĠ": 7472,
      "Ġmil": 7473,
      "Ġfirm": 7474,
      "initely": 7475,
      "_VALUE": 7476,
      "apse": 7477,
      "atisf": 7478,
      "Ġdemand": 7479,
      "_mod": 7480,
      "Ġdescribed": 7481,
      "Ġplaces": 7482,
      "VID": 7483,
      "Ġalone": 7484,
      "Ġexport": 7485,
      "Ġvec": 7486,
      "ĠMax": 7487,
      "Ġactivities": 7488,
      "ictures": 7489,
      "gener": 7490,
      "Ġma": 7491,
      "Ĥ¬": 7492,
      "Ġexpression": 7493,
      "Callback": 7494,
      "_content": 7495,
      "ĠMost": 7496,
      "Ġtesting": 7497,
      "EC": 7498,
      "CHANT": 7499,
      "Ġadjust": 7500,
      ".Threading": 7501,
      "(ctx": 7502,
      "Ġagree": 7503,
      "ighest": 7504,
      "Ġui": 7505,
      "ĠLaw": 7506,
      ".Y": 7507,
      "><?": 7508,
      "Ġpod": 7509,
      "-lg": 7510,
      "âĢĿĊĊ": 7511,
      "Ġdescribe": 7512,
      "ĠEuropean": 7513,
      "-sh": 7514,
      "ĠPURPOSE": 7515,
      "ORY": 7516,
      "Ġconvers": 7517,
      "ĠIlluminate": 7518,
      "ĠAv": 7519,
      "(ch": 7520,
      "?\"": 7521,
      "chen": 7522,
      "ima": 7523,
      "Document": 7524,
      "Ġoperations": 7525,
      "win": 7526,
      "ĉfunction": 7527,
      ".Image": 7528,
      "Ġscen": 7529,
      "/h": 7530,
      "ĠSC": 7531,
      "Ġexplo": 7532,
      ":%": 7533,
      "/**čĊ": 7534,
      "NAME": 7535,
      "æĪ": 7536,
      "(var": 7537,
      "Ġdirector": 7538,
      "ONG": 7539,
      "Ġyield": 7540,
      "Ġfeet": 7541,
      "ĠSearch": 7542,
      "ĠIl": 7543,
      "Ġrestaur": 7544,
      "duc": 7545,
      "Ġinteger": 7546,
      "Ġ'';Ċ": 7547,
      "Ġhighly": 7548,
      "checked": 7549,
      "ĠPARTIC": 7550,
      "ERCHANT": 7551,
      "ï¼ī": 7552,
      "Ġoptim": 7553,
      "Queue": 7554,
      "ĠLI": 7555,
      "itation": 7556,
      "Ġtransport": 7557,
      "ission": 7558,
      "fill": 7559,
      "usion": 7560,
      "ĠĠĠĠĠĠĠĠĠĠĠĠĠĠĠĠĠĠĠĠĠĠĠĠĠĠĠĠĠĠ": 7561,
      "ĉbool": 7562,
      "-th": 7563,
      "upt": 7564,
      "Ġessential": 7565,
      "anted": 7566,
      "Ġbenefits": 7567,
      "ĉS": 7568,
      "';čĊ": 7569,
      "iki": 7570,
      "Ġgirls": 7571,
      "iced": 7572,
      "buffer": 7573,
      "]+": 7574,
      "Ġsocket": 7575,
      "Ġprices": 7576,
      "ĠFre": 7577,
      "Ġsat": 7578,
      "Ġwood": 7579,
      "MenuItem": 7580,
      "ARG": 7581,
      "ĠAdmin": 7582,
      "OWN": 7583,
      "dk": 7584,
      "Ġreset": 7585,
      "Ġforms": 7586,
      "ĠÐ¸": 7587,
      "æĸ": 7588,
      "ĠTuesday": 7589,
      "ĠInitialized": 7590,
      "_train": 7591,
      "orary": 7592,
      "ategor": 7593,
      "Ġdt": 7594,
      "Total": 7595,
      "construct": 7596,
      "ilies": 7597,
      "Ġguys": 7598,
      "ÐµÑĢ": 7599,
      "Ġinstruction": 7600,
      "yled": 7601,
      "Ġinternet": 7602,
      "etadata": 7603,
      "ady": 7604,
      "faces": 7605,
      "jection": 7606,
      "ĠJack": 7607,
      "Ġrect": 7608,
      "[-": 7609,
      "ĠLeg": 7610,
      "Ġdevices": 7611,
      "OC": 7612,
      "Ġ*čĊ": 7613,
      "oration": 7614,
      "ertain": 7615,
      "Ġguard": 7616,
      "ostream": 7617,
      "Ġenum": 7618,
      ".layout": 7619,
      "Ġ\";Ċ": 7620,
      "voke": 7621,
      "ĠOk": 7622,
      "Home": 7623,
      "(tr": 7624,
      "ETH": 7625,
      "Ġdelay": 7626,
      "Ġpurchase": 7627,
      "dc": 7628,
      "Ġaren": 7629,
      "_once": 7630,
      "ĉĉĉĉĊ": 7631,
      "ror": 7632,
      "draw": 7633,
      ".run": 7634,
      "(model": 7635,
      "Timeout": 7636,
      "lik": 7637,
      "ĠArg": 7638,
      ".en": 7639,
      "Ġfish": 7640,
      "cpy": 7641,
      "_fe": 7642,
      "ERCHANTABILITY": 7643,
      "(X": 7644,
      "_output": 7645,
      "??": 7646,
      "Ġjo": 7647,
      "andard": 7648,
      "Ġdoll": 7649,
      "errors": 7650,
      "_base": 7651,
      "ĠPARTICULAR": 7652,
      "Ġleader": 7653,
      "Ġcompar": 7654,
      "Ġdoub": 7655,
      "ĠVis": 7656,
      "StackTrace": 7657,
      "-C": 7658,
      "ĠStud": 7659,
      "stitute": 7660,
      "More": 7661,
      "ĠDescription": 7662,
      "WARE": 7663,
      "ads": 7664,
      "ĠÐº": 7665,
      "bind": 7666,
      "=self": 7667,
      "employ": 7668,
      "[n": 7669,
      ".all": 7670,
      "-B": 7671,
      "&&": 7672,
      "alm": 7673,
      "Ġculture": 7674,
      "house": 7675,
      "Ġsuffer": 7676,
      "Ġ'%": 7677,
      "Ġstraight": 7678,
      "ĠStar": 7679,
      "udo": 7680,
      "Ġded": 7681,
      "ĠCOM": 7682,
      "Ġconfirm": 7683,
      "ĠGood": 7684,
      ".sc": 7685,
      "________________": 7686,
      "DR": 7687,
      "Configuration": 7688,
      "DateTime": 7689,
      "Ġadvert": 7690,
      "Ġcouldn": 7691,
      "async": 7692,
      "stack": 7693,
      "')čĊ": 7694,
      "Kit": 7695,
      "Ġhous": 7696,
      "Ġmechan": 7697,
      "rate": 7698,
      "Ġaudio": 7699,
      "ĉcout": 7700,
      "cores": 7701,
      "Ġspot": 7702,
      "Ġincreasing": 7703,
      "Ġ##": 7704,
      ")))": 7705,
      "points": 7706,
      "Ġcompared": 7707,
      "lig": 7708,
      "Ġbehavior": 7709,
      "ĠBY": 7710,
      "ĠAtt": 7711,
      "craft": 7712,
      "headers": 7713,
      "ete": 7714,
      "endregion": 7715,
      "Ġdetail": 7716,
      "ULE": 7717,
      "ĠCommon": 7718,
      "ĉprotected": 7719,
      "ston": 7720,
      "ĠFITNESS": 7721,
      "Ġfresh": 7722,
      "\">ĊĊ": 7723,
      ".example": 7724,
      "berg": 7725,
      "Ġmoved": 7726,
      "ĉe": 7727,
      "ĠSaturday": 7728,
      "Ġpayload": 7729,
      "Äĩ": 7730,
      "):ĊĊ": 7731,
      "Ġbey": 7732,
      "urer": 7733,
      "<script": 7734,
      "Ġsymbol": 7735,
      "Ġassum": 7736,
      "Ġpul": 7737,
      "Effect": 7738,
      "Ġhundred": 7739,
      "Tool": 7740,
      "aked": 7741,
      "connection": 7742,
      "Ġvoice": 7743,
      "Ġpd": 7744,
      "Ġtransaction": 7745,
      "Ġlinks": 7746,
      "Err": 7747,
      "ĠIndian": 7748,
      "TC": 7749,
      "atalog": 7750,
      "ni": 7751,
      "sign": 7752,
      "<<\"": 7753,
      "ji": 7754,
      "ya": 7755,
      "Ġdemonstr": 7756,
      "ulated": 7757,
      ".St": 7758,
      "Ġinstit": 7759,
      "Ġboost": 7760,
      "Ġcells": 7761,
      "olic": 7762,
      ".Pro": 7763,
      ":</": 7764,
      "EventListener": 7765,
      "ifying": 7766,
      "ĠDi": 7767,
      "orrow": 7768,
      ".execute": 7769,
      "Ġcollege": 7770,
      "Your": 7771,
      "Ġlargest": 7772,
      ".dis": 7773,
      "Ġqui": 7774,
      "Ġindividuals": 7775,
      "_buffer": 7776,
      "Ġng": 7777,
      "SA": 7778,
      "ĠControl": 7779,
      "Ġsing": 7780,
      "Ġsuit": 7781,
      "ĠĠĠĠĉ": 7782,
      "SG": 7783,
      "Ġjump": 7784,
      "Ġsmart": 7785,
      "oma": 7786,
      "ĠExp": 7787,
      "Ġ'-": 7788,
      "Ġassist": 7789,
      "Ġsuccessfully": 7790,
      "sys": 7791,
      "ĠCre": 7792,
      "_ref": 7793,
      "ĠThursday": 7794,
      "Ġbur": 7795,
      "ĠÐ´": 7796,
      "Ġbeyond": 7797,
      "Ġnodes": 7798,
      "Details": 7799,
      "inct": 7800,
      "ĠJames": 7801,
      "Ġaffect": 7802,
      "exception": 7803,
      "Ġtypeof": 7804,
      "(čĊ": 7805,
      "-se": 7806,
      "Ġfetch": 7807,
      "`,": 7808,
      "Ġcrusher": 7809,
      "}.": 7810,
      "ĠBO": 7811,
      "Show": 7812,
      "Ġrates": 7813,
      "Ġbon": 7814,
      "-icon": 7815,
      "ĠMedia": 7816,
      "RESS": 7817,
      "ĠValid": 7818,
      "Ð¾Ð»": 7819,
      "Ġfuck": 7820,
      "acks": 7821,
      "Ġstudies": 7822,
      "Me": 7823,
      "Ġowners": 7824,
      "}else": 7825,
      "Ġgrowing": 7826,
      "Variable": 7827,
      "ĠBel": 7828,
      ".random": 7829,
      "vement": 7830,
      "onym": 7831,
      "(F": 7832,
      "ĠFALSE": 7833,
      "Ġtorch": 7834,
      "(row": 7835,
      "igo": 7836,
      "structure": 7837,
      "Ġcertainly": 7838,
      "Dep": 7839,
      "ĠGreen": 7840,
      "question": 7841,
      "Ġadding": 7842,
      "ĠDevelop": 7843,
      "_def": 7844,
      "Ġmach": 7845,
      "=%": 7846,
      "ĉĉĠ": 7847,
      "conds": 7848,
      "Project": 7849,
      "Ġreject": 7850,
      "ĠÎ": 7851,
      "Ġpoor": 7852,
      "Ġaware": 7853,
      "ĠBuild": 7854,
      "ĠBritish": 7855,
      "ĠNE": 7856,
      "Ġnumer": 7857,
      "rees": 7858,
      "claim": 7859,
      "Ġmock": 7860,
      "Ġom": 7861,
      "Ġscre": 7862,
      "OLD": 7863,
      ".pl": 7864,
      "eler": 7865,
      "Ġcorrespond": 7866,
      "_HE": 7867,
      "Ġbinary": 7868,
      "_order": 7869,
      "ĠSQL": 7870,
      "Ġadvant": 7871,
      "Ġprev": 7872,
      ".[": 7873,
      ".assertEqual": 7874,
      "plier": 7875,
      "arp": 7876,
      "Ġclosed": 7877,
      "Ġencour": 7878,
      "ĠQString": 7879,
      "aud": 7880,
      "Ġdeveloped": 7881,
      "Ġpermission": 7882,
      ".debug": 7883,
      "operator": 7884,
      "Ġ'Ċ": 7885,
      "Ġsym": 7886,
      "atively": 7887,
      "Ã©e": 7888,
      "-color": 7889,
      "ĠGET": 7890,
      "ky": 7891,
      "Ġalthough": 7892,
      "_request": 7893,
      "_element": 7894,
      "................": 7895,
      "_DATA": 7896,
      "Ġamazing": 7897,
      "Ġsb": 7898,
      "ĠDefault": 7899,
      "Events": 7900,
      "Ġfailure": 7901,
      "acle": 7902,
      "Properties": 7903,
      "Ġdream": 7904,
      "Ġdistr": 7905,
      "Ġau": 7906,
      "Ġgenerated": 7907,
      "æķ": 7908,
      "ĠTeam": 7909,
      "USE": 7910,
      "Ġincome": 7911,
      "Ġeye": 7912,
      "_not": 7913,
      "\"],": 7914,
      "_form": 7915,
      "Support": 7916,
      "orders": 7917,
      ".Print": 7918,
      "ville": 7919,
      "ĠWednesday": 7920,
      "olver": 7921,
      "Ġoppos": 7922,
      "isation": 7923,
      "ola": 7924,
      "Close": 7925,
      "<p": 7926,
      "_width": 7927,
      "Invalid": 7928,
      "xb": 7929,
      "Ġstrugg": 7930,
      "_action": 7931,
      "Ġtxt": 7932,
      "ĠPath": 7933,
      "alar": 7934,
      "ĠMERCHANTABILITY": 7935,
      "service": 7936,
      "ĠMichael": 7937,
      "ableView": 7938,
      "Debug": 7939,
      "okes": 7940,
      "She": 7941,
      "Ġguess": 7942,
      "ĠJava": 7943,
      "_PATH": 7944,
      "Ġparticularly": 7945,
      "ĠII": 7946,
      "Ġdomain": 7947,
      "å¹´": 7948,
      "Ġreduce": 7949,
      "-left": 7950,
      "real": 7951,
      "Ġappears": 7952,
      "Ġcomo": 7953,
      "ĠUnit": 7954,
      "ĠGovern": 7955,
      "ali": 7956,
      "allel": 7957,
      "ĠJew": 7958,
      "_I": 7959,
      "Ġcos": 7960,
      ".color": 7961,
      "ĠGlobal": 7962,
      "Ġtele": 7963,
      "ben": 7964,
      "_trans": 7965,
      "Ġreasons": 7966,
      "Ġemb": 7967,
      "ensity": 7968,
      "lines": 7969,
      "omin": 7970,
      "Screen": 7971,
      "Ð°ÑĤ": 7972,
      "pects": 7973,
      "clip": 7974,
      "foo": 7975,
      "rent": 7976,
      "Ġaf": 7977,
      "Ġdanger": 7978,
      "iling": 7979,
      "Names": 7980,
      "Our": 7981,
      "Ġdistribution": 7982,
      "While": 7983,
      "SL": 7984,
      "Write": 7985,
      "Ġgoto": 7986,
      "Ġcolors": 7987,
      "Ġpowerful": 7988,
      "kin": 7989,
      "Ġdepth": 7990,
      "ercial": 7991,
      "ĠCongress": 7992,
      "ĠMarket": 7993,
      "Db": 7994,
      "under": 7995,
      "ĠLast": 7996,
      "ÃŁ": 7997,
      "greg": 7998,
      "Ġposts": 7999,
      "_URL": 8000,
      "otos": 8001,
      "Don": 8002,
      "Ġmicro": 8003,
      "Ġarrest": 8004,
      "Ð¿": 8005,
      "Ġ(@": 8006,
      "ĠHot": 8007,
      "ĠIndex": 8008,
      ";&": 8009,
      "#!": 8010,
      "ĠNor": 8011,
      "ĠCap": 8012,
      "-(": 8013,
      "Ġinterested": 8014,
      "pear": 8015,
      "Ġrent": 8016,
      "Ġalbum": 8017,
      "olicy": 8018,
      ".lang": 8019,
      ".trans": 8020,
      ".format": 8021,
      "Ġ{čĊčĊ": 8022,
      "phere": 8023,
      "Ġaxis": 8024,
      "ĠBusiness": 8025,
      "ersistence": 8026,
      "urr": 8027,
      "Ġminimum": 8028,
      "endor": 8029,
      "ĠSD": 8030,
      "ĠInternet": 8031,
      "å¤": 8032,
      "Exp": 8033,
      "iverse": 8034,
      "MM": 8035,
      "Ġobvious": 8036,
      "Ġbasis": 8037,
      "Ġscience": 8038,
      "Ġbudget": 8039,
      "izations": 8040,
      "PA": 8041,
      "Ġflags": 8042,
      "pret": 8043,
      "LOCK": 8044,
      "Ġvariety": 8045,
      "Ġtruth": 8046,
      "dt": 8047,
      "Ġgone": 8048,
      "Ġbattle": 8049,
      "<std": 8050,
      "ĠSil": 8051,
      "rf": 8052,
      "uda": 8053,
      "Ġerot": 8054,
      "ĠCam": 8055,
      "Ġstation": 8056,
      "Ġ'</": 8057,
      "cheme": 8058,
      "ĠSun": 8059,
      "Ġfinished": 8060,
      "Ġshop": 8061,
      "ĠKore": 8062,
      "Ġeight": 8063,
      "_REG": 8064,
      "ND": 8065,
      ">,": 8066,
      "\"><?": 8067,
      "(num": 8068,
      "ĉinline": 8069,
      "Transaction": 8070,
      ".On": 8071,
      "Ġmail": 8072,
      "rey": 8073,
      "results": 8074,
      "Ġnav": 8075,
      "IMIT": 8076,
      "_ids": 8077,
      "Make": 8078,
      "åĬ": 8079,
      "Modal": 8080,
      "ĠLOG": 8081,
      "ĠSur": 8082,
      "Ġinstanceof": 8083,
      "Ġoverall": 8084,
      "ĠInformation": 8085,
      "Ġconstruction": 8086,
      "_FILE": 8087,
      "but": 8088,
      "Ġmedic": 8089,
      "Ġduration": 8090,
      "itness": 8091,
      "agent": 8092,
      "AV": 8093,
      "Ġseven": 8094,
      "olf": 8095,
      "Ġ}}Ċ": 8096,
      "\"],Ċ": 8097,
      "Ġcalling": 8098,
      "Ġans": 8099,
      "throws": 8100,
      "orizontal": 8101,
      "ĠuseState": 8102,
      ".fl": 8103,
      "ĠStatus": 8104,
      "ĠOnline": 8105,
      "RR": 8106,
      "ĠRich": 8107,
      "ĠHill": 8108,
      "Ġbrain": 8109,
      "Ġfollowed": 8110,
      "emic": 8111,
      "Ġslight": 8112,
      "Ġinsurance": 8113,
      ".Array": 8114,
      "Ġabstract": 8115,
      "ĠSum": 8116,
      "redirect": 8117,
      "owner": 8118,
      "(msg": 8119,
      "ĠClinton": 8120,
      "Non": 8121,
      "ĉex": 8122,
      "Ġvolume": 8123,
      "ĠEventArgs": 8124,
      "-L": 8125,
      "ĠDim": 8126,
      "ĠMart": 8127,
      "Ġcursor": 8128,
      "Ġimplementation": 8129,
      "urred": 8130,
      "Ġlarger": 8131,
      ");ĊĊĊ": 8132,
      "'+": 8133,
      ".transform": 8134,
      "Ġupload": 8135,
      "ĠĠĠĠĠĠĠĠĠĠĠĠĠĠĠĠĠĠĠĠĠĠĠĠĠĠĠĠĠĠĠĠĠĠĠĠĠĠĠĠĠĠĠĠĠĠĠĠĠĠĠĠĠĠĠ": 8136,
      "Draw": 8137,
      "nel": 8138,
      "ĉfloat": 8139,
      "qrt": 8140,
      "ĠNetwork": 8141,
      "Ġtit": 8142,
      "Axis": 8143,
      ".android": 8144,
      "Ġcompleted": 8145,
      "Ġmur": 8146,
      "Ġcolumns": 8147,
      "xc": 8148,
      "Ġsupply": 8149,
      "iminal": 8150,
      "Ġspr": 8151,
      "================================================================": 8152,
      "Ġunits": 8153,
      "(u": 8154,
      "mi": 8155,
      "replace": 8156,
      "[key": 8157,
      "à¹": 8158,
      "antic": 8159,
      "Ġpayment": 8160,
      ",B": 8161,
      "ĠApple": 8162,
      "gin": 8163,
      "Required": 8164,
      "#+": 8165,
      "lands": 8166,
      "Ġsqu": 8167,
      "Ġfactor": 8168,
      "dec": 8169,
      "Ġstrength": 8170,
      "Ġboy": 8171,
      "Ġbalance": 8172,
      "Ġsources": 8173,
      "screen": 8174,
      "-top": 8175,
      "ĠAmazon": 8176,
      "Ġhidden": 8177,
      "ÐµÑĤ": 8178,
      "_client": 8179,
      "Ġeat": 8180,
      ".display": 8181,
      "ĠÂ»": 8182,
      "Ġtrigger": 8183,
      "anager": 8184,
      "Ġtro": 8185,
      "Ġclaims": 8186,
      "ford": 8187,
      "ĠCompany": 8188,
      "Ġgift": 8189,
      ",:": 8190,
      "_app": 8191,
      "handle": 8192,
      "Ġproduce": 8193,
      "/lib": 8194,
      "Ġ-*": 8195,
      "ĉset": 8196,
      "'];": 8197,
      "arc": 8198,
      "ander": 8199,
      "ĠEngine": 8200,
      "Ġattributes": 8201,
      "task": 8202,
      "<=": 8203,
      "(N": 8204,
      "Ġwarm": 8205,
      "which": 8206,
      "ĠFore": 8207,
      "agnost": 8208,
      "mys": 8209,
      "Ġtal": 8210,
      "ĠSal": 8211,
      "gi": 8212,
      "ĠPrint": 8213,
      "ĠTRUE": 8214,
      "ĠÐ¾": 8215,
      ".UI": 8216,
      "Ġflash": 8217,
      "roperty": 8218,
      ".location": 8219,
      "ĠMill": 8220,
      "bi": 8221,
      "contr": 8222,
      ".request": 8223,
      "ĠSam": 8224,
      "Ġnegative": 8225,
      "kit": 8226,
      "Ġsett": 8227,
      ".printStackTrace": 8228,
      "abe": 8229,
      "ĉi": 8230,
      "Ġburn": 8231,
      "Ġsociety": 8232,
      "Cache": 8233,
      "ĠSecurity": 8234,
      ".models": 8235,
      "ĠWARRANTY": 8236,
      "_up": 8237,
      "ceive": 8238,
      "Ġclients": 8239,
      ".Tr": 8240,
      "Ġproviding": 8241,
      "Ġrout": 8242,
      "material": 8243,
      "Ġ||Ċ": 8244,
      "ĠSer": 8245,
      "ĠOffice": 8246,
      "FTWARE": 8247,
      "Ġ'$": 8248,
      "Ġfoc": 8249,
      "Ġexcell": 8250,
      "Ġcat": 8251,
      "normal": 8252,
      "Ġdetermine": 8253,
      "ĉuint": 8254,
      "Pane": 8255,
      "Ġemployees": 8256,
      "ĠTexas": 8257,
      "Ġtraff": 8258,
      "ĠReport": 8259,
      "anta": 8260,
      "ĠBox": 8261,
      "Ġdjango": 8262,
      "Ġpartner": 8263,
      "EB": 8264,
      "LINE": 8265,
      "Ġfeeling": 8266,
      "Ġcivil": 8267,
      "(float": 8268,
      "Sql": 8269,
      "Ġwouldn": 8270,
      ".init": 8271,
      ".left": 8272,
      "-v": 8273,
      "_level": 8274,
      "'}": 8275,
      "AF": 8276,
      "Ġloading": 8277,
      "ĠOnly": 8278,
      "Ġcookies": 8279,
      "ĠGl": 8280,
      "CO": 8281,
      "Ġstrategy": 8282,
      "('./": 8283,
      "Ġship": 8284,
      "poses": 8285,
      "Ġsignal": 8286,
      "Ġalpha": 8287,
      ".pop": 8288,
      "Radius": 8289,
      "Ġreplace": 8290,
      "_DIR": 8291,
      "counter": 8292,
      "bservable": 8293,
      "ela": 8294,
      "Weight": 8295,
      "hash": 8296,
      "bose": 8297,
      "fx": 8298,
      "ĠEmail": 8299,
      "Ġrefer": 8300,
      "localhost": 8301,
      "_RO": 8302,
      "iques": 8303,
      "Step": 8304,
      "Ġahead": 8305,
      "(View": 8306,
      "ĠServices": 8307,
      "ĠJson": 8308,
      "essor": 8309,
      "Ġpun": 8310,
      "Ġappropriate": 8311,
      "akers": 8312,
      "osen": 8313,
      "posing": 8314,
      "Ġagent": 8315,
      "fc": 8316,
      "Ġtransfer": 8317,
      "Ġinvalid": 8318,
      "ĠResearch": 8319,
      "Vertex": 8320,
      "Ġgay": 8321,
      "Ġjournal": 8322,
      "[x": 8323,
      "Ġ\"\",Ċ": 8324,
      "ĠWell": 8325,
      ".Tasks": 8326,
      "Spec": 8327,
      "Ġol": 8328,
      "Ġspend": 8329,
      "ĠAustralia": 8330,
      "Match": 8331,
      ".junit": 8332,
      "ĠĠĠĠĠĠĠĠĠĠĠĠĠĠĠĠĠĠĠĠĠĠĠĠĠĠĠĠĠĠĠĠĠĠĠĠĠ": 8333,
      "ĠMAX": 8334,
      "izable": 8335,
      "clusive": 8336,
      "_valid": 8337,
      "Ġquarter": 8338,
      "yan": 8339,
      "ĠEdit": 8340,
      "arden": 8341,
      "=new": 8342,
      "Ġfrag": 8343,
      "Bit": 8344,
      "zi": 8345,
      "aine": 8346,
      "udd": 8347,
      ".Object": 8348,
      "debug": 8349,
      "Ġcash": 8350,
      "_IM": 8351,
      "Ġeen": 8352,
      "Ġcommercial": 8353,
      "ĠVideo": 8354,
      "loader": 8355,
      "Ġfixed": 8356,
      "Ġapplications": 8357,
      "Ġ_,": 8358,
      "ĠRussia": 8359,
      "itect": 8360,
      "_(": 8361,
      "ĠBlock": 8362,
      "Ġsan": 8363,
      "ĠTom": 8364,
      "Ġperhaps": 8365,
      "Ġsig": 8366,
      "levant": 8367,
      "Ġcorpor": 8368,
      "ataset": 8369,
      "ronic": 8370,
      "xe": 8371,
      "Ġeth": 8372,
      "Some": 8373,
      "pop": 8374,
      "_OK": 8375,
      "Ġtend": 8376,
      ".Res": 8377,
      "_and": 8378,
      "Ġreviews": 8379,
      "Ġwild": 8380,
      "Ġdegree": 8381,
      ".O": 8382,
      ".objects": 8383,
      "_args": 8384,
      "nil": 8385,
      "Ġdisabled": 8386,
      "Parent": 8387,
      "Ġnotes": 8388,
      "Ġ\"\"Ċ": 8389,
      "(state": 8390,
      "istrict": 8391,
      "Ġlogging": 8392,
      ".IO": 8393,
      "ĠMal": 8394,
      "DM": 8395,
      "Ġxml": 8396,
      "ĠRobert": 8397,
      "elen": 8398,
      "layout": 8399,
      "fol": 8400,
      "']))": 8401,
      ",b": 8402,
      "ĠJer": 8403,
      "filename": 8404,
      "Ġfan": 8405,
      "ĠCustom": 8406,
      "=\"\"": 8407,
      "ĠDie": 8408,
      "Bundle": 8409,
      ".utils": 8410,
      "Ġtrip": 8411,
      "MB": 8412,
      "Ġsoft": 8413,
      "_MODE": 8414,
      "Ġapplicable": 8415,
      "Ġupper": 8416,
      "ERVER": 8417,
      "_al": 8418,
      "_LOG": 8419,
      "Here": 8420,
      "wp": 8421,
      "ĠServer": 8422,
      "ĠClient": 8423,
      "Ġchem": 8424,
      "Scroll": 8425,
      "Ġhighest": 8426,
      "ĠSelect": 8427,
      "Ġ\"@": 8428,
      "ĠWhy": 8429,
      "Sec": 8430,
      "heel": 8431,
      "Operation": 8432,
      "Ġconnected": 8433,
      "irmed": 8434,
      "Ġcitiz": 8435,
      "ĠChe": 8436,
      "Ġforces": 8437,
      "Ġwww": 8438,
      "Root": 8439,
      "ANCE": 8440,
      "Many": 8441,
      "icip": 8442,
      "rgan": 8443,
      "ĠTor": 8444,
      "ĠPress": 8445,
      "ĠMor": 8446,
      "-line": 8447,
      "uled": 8448,
      ">\\": 8449,
      "Ġthus": 8450,
      "ĠRegister": 8451,
      "hol": 8452,
      "ĠChinese": 8453,
      "Ġposted": 8454,
      "Ġmagn": 8455,
      "abilities": 8456,
      "Ġdisease": 8457,
      "Ġremains": 8458,
      "ĠProf": 8459,
      "-form": 8460,
      "Ġcin": 8461,
      "organ": 8462,
      "icate": 8463,
      "Ġstress": 8464,
      "]*": 8465,
      "Ġ----------------------------------------------------------------": 8466,
      "_context": 8467,
      "orry": 8468,
      "Ġdied": 8469,
      "mat": 8470,
      "Ġstarts": 8471,
      ".Message": 8472,
      "Ġruns": 8473,
      "Ġguide": 8474,
      "Ġwarranty": 8475,
      "entials": 8476,
      "dict": 8477,
      "ĠSize": 8478,
      "uler": 8479,
      "Ġresponsible": 8480,
      "_SET": 8481,
      "Ġcontaining": 8482,
      "ĠPrice": 8483,
      "||": 8484,
      "FS": 8485,
      "Ġemp": 8486,
      "_button": 8487,
      "(uint": 8488,
      "Ġsuff": 8489,
      "pth": 8490,
      "Ġdefinitely": 8491,
      "pute": 8492,
      "Ġmarketing": 8493,
      "ĠWH": 8494,
      "ĠSie": 8495,
      "+=": 8496,
      "OLOR": 8497,
      "Ġconsult": 8498,
      "Ġsigned": 8499,
      "Ġsequence": 8500,
      "lee": 8501,
      "Ġrequirements": 8502,
      "hy": 8503,
      "Express": 8504,
      "MT": 8505,
      "sey": 8506,
      "Ġult": 8507,
      "å®": 8508,
      "elligence": 8509,
      "Ġanaly": 8510,
      "Ġdress": 8511,
      "engine": 8512,
      "ĠGreat": 8513,
      "ĠAndroid": 8514,
      "ĠAlex": 8515,
      "mode": 8516,
      "Dictionary": 8517,
      ".Date": 8518,
      "ä½": 8519,
      "VICE": 8520,
      "Ġfamilies": 8521,
      "ĠRussian": 8522,
      "ĠTimes": 8523,
      ".call": 8524,
      "$(": 8525,
      "Profile": 8526,
      "Ġfolder": 8527,
      "ches": 8528,
      "Ġlegis": 8529,
      "_row": 8530,
      "unes": 8531,
      "ÙĦ": 8532,
      "Ġ}).": 8533,
      "Assert": 8534,
      "agen": 8535,
      "ĠHand": 8536,
      "Iter": 8537,
      "Ġbiggest": 8538,
      "oreach": 8539,
      "Ġpolic": 8540,
      "Ġpermissions": 8541,
      "Ġshowed": 8542,
      "ĠElement": 8543,
      "Ġtopic": 8544,
      "âĢĶâĢĶ": 8545,
      "road": 8546,
      "ĠBank": 8547,
      "record": 8548,
      "Ġpartners": 8549,
      "ĠRef": 8550,
      "essions": 8551,
      "Ġassess": 8552,
      "UST": 8553,
      "ĠParty": 8554,
      "produ": 8555,
      "LC": 8556,
      "Ġul": 8557,
      ".form": 8558,
      "hide": 8559,
      "copy": 8560,
      "UTF": 8561,
      "ĠSOFTWARE": 8562,
      "čĊčĊčĊ": 8563,
      "ĠLin": 8564,
      "una": 8565,
      "ugar": 8566,
      "Ġadministration": 8567,
      "Ġopening": 8568,
      "Ġscan": 8569,
      "Ġcontinued": 8570,
      "component": 8571,
      ".sp": 8572,
      "Ġhappens": 8573,
      "ummy": 8574,
      "ĠPR": 8575,
      ".File": 8576,
      "ĠDownload": 8577,
      "Loading": 8578,
      "di": 8579,
      "Ġwaiting": 8580,
      "_ADD": 8581,
      "Tab": 8582,
      ".querySelector": 8583,
      "Ġeconomy": 8584,
      "ĠFrench": 8585,
      "txt": 8586,
      "Ġfant": 8587,
      "_;Ċ": 8588,
      "Holder": 8589,
      "SH": 8590,
      "Ġnumpy": 8591,
      "Ġstreet": 8592,
      "Ġmale": 8593,
      "\\Model": 8594,
      "anging": 8595,
      "ĠBill": 8596,
      "Ġpreviously": 8597,
      "BI": 8598,
      "ĠSecret": 8599,
      "Ġmist": 8600,
      "ĠField": 8601,
      "ups": 8602,
      "ĠProcess": 8603,
      "Ġkept": 8604,
      "ĠOT": 8605,
      "Ġtraditional": 8606,
      ".i": 8607,
      "amin": 8608,
      "Ġhelps": 8609,
      "Any": 8610,
      "origin": 8611,
      "ilters": 8612,
      "ju": 8613,
      "desc": 8614,
      "ĠAccount": 8615,
      "Ġ)čĊ": 8616,
      "ktop": 8617,
      "olly": 8618,
      "Ġfs": 8619,
      "Ġê": 8620,
      "Ġut": 8621,
      "Ġcentral": 8622,
      "(test": 8623,
      ".An": 8624,
      "Ġsatisf": 8625,
      "GR": 8626,
      "ĠFull": 8627,
      "Ġheat": 8628,
      "iber": 8629,
      "Ġonto": 8630,
      "mos": 8631,
      "Schema": 8632,
      "Ġfactory": 8633,
      "\".$": 8634,
      "aws": 8635,
      "Statement": 8636,
      "(target": 8637,
      "ĉnew": 8638,
      ".be": 8639,
      "Ġguest": 8640,
      "Ġmal": 8641,
      "ARY": 8642,
      "Ġreached": 8643,
      "Ġmouse": 8644,
      "Ġchallenge": 8645,
      "ĉdouble": 8646,
      "ĠTem": 8647,
      "Ġterror": 8648,
      "Ġextract": 8649,
      "_TO": 8650,
      "Ġseparate": 8651,
      "Ġmir": 8652,
      "help": 8653,
      "Ġcapacity": 8654,
      "ĠProperty": 8655,
      "kan": 8656,
      "_create": 8657,
      "ĠLight": 8658,
      ".parent": 8659,
      "Ġunderstanding": 8660,
      "Ġeasier": 8661,
      "Ġ|=": 8662,
      "Ġenh": 8663,
      "Ġfat": 8664,
      "Ġprotest": 8665,
      "amm": 8666,
      "_AT": 8667,
      "-of": 8668,
      "ils": 8669,
      "ĠOh": 8670,
      "Ġpsych": 8671,
      "Ġ$.": 8672,
      "inds": 8673,
      "Ġrelative": 8674,
      "shop": 8675,
      "short": 8676,
      "ĠSand": 8677,
      "uestion": 8678,
      "Ġfear": 8679,
      "/ĊĊ": 8680,
      ".context": 8681,
      "Ġschools": 8682,
      "Ġserve": 8683,
      "zone": 8684,
      "_db": 8685,
      "Ġmajority": 8686,
      "example": 8687,
      "Ġlang": 8688,
      "ĉĠĠ": 8689,
      "Register": 8690,
      "endo": 8691,
      "Ġprocessing": 8692,
      "_template": 8693,
      "-user": 8694,
      "Ġeg": 8695,
      "COM": 8696,
      "ĠBlue": 8697,
      "iro": 8698,
      "Ġremote": 8699,
      "ĠIT": 8700,
      "#!/": 8701,
      "Ġredistrib": 8702,
      "raz": 8703,
      "ĠSince": 8704,
      "ĠTur": 8705,
      "Background": 8706,
      "===": 8707,
      "Ġreflect": 8708,
      "Ġpros": 8709,
      "cmd": 8710,
      "Ġwhom": 8711,
      "Compat": 8712,
      "ĠAre": 8713,
      "Identifier": 8714,
      "ĠThom": 8715,
      "_port": 8716,
      "gu": 8717,
      "Ġmonitor": 8718,
      "rm": 8719,
      "Ġpatient": 8720,
      "verter": 8721,
      "Ġgain": 8722,
      "-ui": 8723,
      "Inst": 8724,
      "Ġdies": 8725,
      "Area": 8726,
      "_filter": 8727,
      "Ġgrat": 8728,
      "Ġreality": 8729,
      "ordinate": 8730,
      "olved": 8731,
      "Contact": 8732,
      "Ġcompliance": 8733,
      "_or": 8734,
      "ĠVar": 8735,
      "dl": 8736,
      "Ġappend": 8737,
      "GER": 8738,
      "(max": 8739,
      ".render": 8740,
      "Ġdynamic": 8741,
      "ordinates": 8742,
      "_options": 8743,
      "_column": 8744,
      "Ġbatter": 8745,
      "space": 8746,
      "La": 8747,
      "ĠSource": 8748,
      "/bin": 8749,
      "Ġdos": 8750,
      "ĠBoard": 8751,
      "ĠThread": 8752,
      "ĠAL": 8753,
      "(config": 8754,
      "ĠMer": 8755,
      "Ġmiles": 8756,
      "_header": 8757,
      "ETHOD": 8758,
      "izz": 8759,
      "Ġbenefit": 8760,
      "Ġintegr": 8761,
      "(current": 8762,
      "ulo": 8763,
      ".default": 8764,
      "ĠDiv": 8765,
      "Ġton": 8766,
      "oth": 8767,
      "ervation": 8768,
      "edom": 8769,
      "Ġbaby": 8770,
      "ceived": 8771,
      ".top": 8772,
      "riority": 8773,
      "ĠLocal": 8774,
      "riage": 8775,
      "Ġattacks": 8776,
      "Ġhospital": 8777,
      "Ġfemale": 8778,
      "ĠLogin": 8779,
      "ĠFlor": 8780,
      "Ġchain": 8781,
      "ashion": 8782,
      "Texture": 8783,
      "Save": 8784,
      "Ġfarm": 8785,
      ".contains": 8786,
      ".Test": 8787,
      "Ġknows": 8788,
      "Ġgenerally": 8789,
      "ipeline": 8790,
      "Ġmeant": 8791,
      "encia": 8792,
      "Ġnicht": 8793,
      "Ġcontents": 8794,
      "PM": 8795,
      "chedule": 8796,
      "(line": 8797,
      "CG": 8798,
      "job": 8799,
      "ĠReal": 8800,
      "uer": 8801,
      "firm": 8802,
      "ĠØ": 8803,
      "etro": 8804,
      "\"`Ċ": 8805,
      "Ġspeech": 8806,
      "Ġthr": 8807,
      "foreach": 8808,
      "Ġwarn": 8809,
      "ĉl": 8810,
      "Ġheavy": 8811,
      "<li": 8812,
      "Ne": 8813,
      "Ġinvestigation": 8814,
      "Math": 8815,
      "-title": 8816,
      "Ġchurch": 8817,
      "Ġdespite": 8818,
      "chain": 8819,
      "Ġwhatever": 8820,
      "arian": 8821,
      "fn": 8822,
      "Ġmeta": 8823,
      "})ĊĊ": 8824,
      "UFF": 8825,
      "Ġregarding": 8826,
      "_SUCCESS": 8827,
      "mes": 8828,
      "ĠIntent": 8829,
      "Ġresolve": 8830,
      "poss": 8831,
      "ira": 8832,
      "force": 8833,
      "oice": 8834,
      "Ã¢": 8835,
      "Ġpm": 8836,
      "Ġupdates": 8837,
      "Arr": 8838,
      "ĠÑ": 8839,
      "testing": 8840,
      "Ġtoward": 8841,
      "ntax": 8842,
      "ëĭ": 8843,
      "Ġlisten": 8844,
      "Ġgoals": 8845,
      "InstanceState": 8846,
      "Dr": 8847,
      "Ġrare": 8848,
      "Ġtrail": 8849,
      "Keys": 8850,
      "Cal": 8851,
      "Car": 8852,
      "ĠPeople": 8853,
      "ĉlocal": 8854,
      "classes": 8855,
      "Reference": 8856,
      ".forEach": 8857,
      "emb": 8858,
      "activ": 8859,
      "Ġprim": 8860,
      "redict": 8861,
      "Ġrad": 8862,
      "æķ°": 8863,
      ".Back": 8864,
      "Ġspread": 8865,
      "Ġclock": 8866,
      "Ġvir": 8867,
      "editor": 8868,
      "Ġefforts": 8869,
      "Ġbranch": 8870,
      "Ġindust": 8871,
      "Ġmotor": 8872,
      "Ġamb": 8873,
      "Ġdatetime": 8874,
      "Ġrencont": 8875,
      "ĠChristian": 8876,
      "ĠAmericans": 8877,
      "full": 8878,
      "Ġfmt": 8879,
      ".main": 8880,
      "Ġcaused": 8881,
      "_update": 8882,
      "ĠContent": 8883,
      "ATCH": 8884,
      "Ġbath": 8885,
      "ĠEach": 8886,
      "Ġradio": 8887,
      "achment": 8888,
      "uzz": 8889,
      "Submit": 8890,
      "Ġrestrict": 8891,
      "abin": 8892,
      "ĠLoad": 8893,
      "Ġextension": 8894,
      "Ġessay": 8895,
      "Ġhat": 8896,
      "aviour": 8897,
      "toBe": 8898,
      "\":[": 8899,
      "Ġoffered": 8900,
      "Ġvill": 8901,
      "(double": 8902,
      "æĹ¥": 8903,
      "bc": 8904,
      "_free": 8905,
      "ĠMiss": 8906,
      "ĠBer": 8907,
      "Ġè": 8908,
      "ĠLike": 8909,
      "Ġhelped": 8910,
      ".getName": 8911,
      "_AL": 8912,
      "Ġspirit": 8913,
      "ĠApache": 8914,
      "ws": 8915,
      "Ġtherefore": 8916,
      "(params": 8917,
      "_img": 8918,
      "Ġpeace": 8919,
      "Ġincor": 8920,
      "ĠEXPECT": 8921,
      "Ġminor": 8922,
      "ipes": 8923,
      "ĉdata": 8924,
      "selector": 8925,
      "city": 8926,
      "trie": 8927,
      ".base": 8928,
      "_frame": 8929,
      "Ġopened": 8930,
      "/json": 8931,
      "LY": 8932,
      "nu": 8933,
      ".De": 8934,
      "tf": 8935,
      "margin": 8936,
      ".Parse": 8937,
      "Ġpi": 8938,
      "Ġeq": 8939,
      "bd": 8940,
      "Fields": 8941,
      "ĠTree": 8942,
      "Ġban": 8943,
      "istan": 8944,
      "ĊĠĠĠĠĠĠĠĠĊ": 8945,
      "ĉgl": 8946,
      "Ġproduced": 8947,
      "system": 8948,
      "Mark": 8949,
      "_hash": 8950,
      "Ġbg": 8951,
      "Ġconstit": 8952,
      "ĠLeague": 8953,
      "Ġmission": 8954,
      "_format": 8955,
      "([Ċ": 8956,
      "clusion": 8957,
      "!\"": 8958,
      "Ð·": 8959,
      "break": 8960,
      "ĉswitch": 8961,
      "Ġther": 8962,
      "Transform": 8963,
      "Ġfootball": 8964,
      "-link": 8965,
      "route": 8966,
      ".auth": 8967,
      "Ġbag": 8968,
      "overs": 8969,
      "Ġenabled": 8970,
      "Ġrac": 8971,
      "(I": 8972,
      "CR": 8973,
      "ancing": 8974,
      "Ġmanaged": 8975,
      "_q": 8976,
      "NGTH": 8977,
      "Ġmac": 8978,
      "ĠAuto": 8979,
      "amente": 8980,
      "Ġ'',": 8981,
      ".Append": 8982,
      "Ġpin": 8983,
      ".item": 8984,
      "acking": 8985,
      "Ġoccas": 8986,
      "person": 8987,
      "Ġti": 8988,
      ".Reg": 8989,
      "Ġhaven": 8990,
      "Ġglass": 8991,
      "Ġ\"</": 8992,
      "ĠSimple": 8993,
      "Print": 8994,
      "Ġsurround": 8995,
      "NO": 8996,
      "ãĢĤĊ": 8997,
      "ĠĠĠĠĠĠĠĠčĊ": 8998,
      "ĠMany": 8999,
      "Ġ\"_": 9000,
      "Ġweekend": 9001,
      "Ġsomew": 9002,
      ".params": 9003,
      "small": 9004,
      "ATED": 9005,
      "Ġplugin": 9006,
      "fields": 9007,
      "ĠInitialize": 9008,
      "oon": 9009,
      "atile": 9010,
      "ye": 9011,
      "Ġvous": 9012,
      "LAG": 9013,
      "Ġolder": 9014,
      "Ġgam": 9015,
      "Ġextremely": 9016,
      "Ġhet": 9017,
      "enum": 9018,
      "ĠSET": 9019,
      "xff": 9020,
      "Ġtimer": 9021,
      "/index": 9022,
      "Ġcritical": 9023,
      "Rows": 9024,
      "_argument": 9025,
      "Ġexecute": 9026,
      "Ġshowing": 9027,
      ".xml": 9028,
      "-list": 9029,
      "Role": 9030,
      "typename": 9031,
      "_method": 9032,
      "that": 9033,
      "cher": 9034,
      "ĠâĨ": 9035,
      "XT": 9036,
      "Ġthousands": 9037,
      "ĉn": 9038,
      "Ġresp": 9039,
      "_price": 9040,
      "olut": 9041,
      "Ag": 9042,
      "ĠTwo": 9043,
      "Ġbecomes": 9044,
      "Ġhus": 9045,
      ".Use": 9046,
      "theme": 9047,
      "urb": 9048,
      "Ġ/*Ċ": 9049,
      "erialize": 9050,
      "ARN": 9051,
      "Ġlose": 9052,
      "Lower": 9053,
      "Ġvel": 9054,
      "Ġdefense": 9055,
      "condition": 9056,
      "Ġbes": 9057,
      "Ġdry": 9058,
      "Ġscroll": 9059,
      ".Show": 9060,
      "IEL": 9061,
      "Ð¾ÑĢ": 9062,
      "ĠRest": 9063,
      "Where": 9064,
      "oods": 9065,
      "ĠJes": 9066,
      "Ġwire": 9067,
      "_INFO": 9068,
      "Ġstrings": 9069,
      "gment": 9070,
      "Ġmatches": 9071,
      "Ġelectric": 9072,
      "Ġexcellent": 9073,
      "ĠCouncil": 9074,
      "idade": 9075,
      "Ġwx": 9076,
      "push": 9077,
      "_entry": 9078,
      "Ġtasks": 9079,
      "Ġrich": 9080,
      "sa": 9081,
      "ĠSmith": 9082,
      "UNCTION": 9083,
      "Pointer": 9084,
      "pective": 9085,
      "Ġwidget": 9086,
      "ista": 9087,
      "Ġagency": 9088,
      "Ġsich": 9089,
      "ologies": 9090,
      "Ġtrial": 9091,
      "alysis": 9092,
      ".check": 9093,
      "ARK": 9094,
      "ĠonChange": 9095,
      "about": 9096,
      "',$": 9097,
      "(val": 9098,
      "Ġplaced": 9099,
      "_NO": 9100,
      "Ġdan": 9101,
      ".equal": 9102,
      "ĉĠĠĠĠĠ": 9103,
      "Ġweather": 9104,
      ".game": 9105,
      "Ġdestination": 9106,
      "_USER": 9107,
      "iece": 9108,
      "Ġprovider": 9109,
      ".last": 9110,
      "plex": 9111,
      "Note": 9112,
      "/js": 9113,
      "ĠpÃ¥": 9114,
      "Ġplanning": 9115,
      "attribute": 9116,
      "PRO": 9117,
      "atches": 9118,
      "Ġ<-": 9119,
      "Ġseeing": 9120,
      "Ġcancel": 9121,
      "_ind": 9122,
      ".keys": 9123,
      "Ġvisual": 9124,
      "ĠCurrent": 9125,
      "ĠCollege": 9126,
      "ĠRock": 9127,
      "Ġagreement": 9128,
      "ĠStore": 9129,
      "oving": 9130,
      "Ġcorner": 9131,
      "ampions": 9132,
      "ISE": 9133,
      "Fin": 9134,
      "Ġprotection": 9135,
      "Ġfi": 9136,
      "Play": 9137,
      "plugin": 9138,
      ")}": 9139,
      ".frame": 9140,
      "-z": 9141,
      "Ġtransition": 9142,
      "igin": 9143,
      "Ġcandidate": 9144,
      "ĠUnion": 9145,
      "_values": 9146,
      "(map": 9147,
      "cle": 9148,
      "Ġtrend": 9149,
      "wide": 9150,
      "aren": 9151,
      "Loc": 9152,
      "UTH": 9153,
      "ĠBay": 9154,
      "Ġsmaller": 9155,
      "ius": 9156,
      "well": 9157,
      "Ġcriminal": 9158,
      "Ġconflic": 9159,
      "bert": 9160,
      "_INT": 9161,
      "Ġinvestment": 9162,
      "custom": 9163,
      "ĠSession": 9164,
      "_write": 9165,
      "ania": 9166,
      "ĠMass": 9167,
      "_EQ": 9168,
      "_NOT": 9169,
      "Ġviolence": 9170,
      "Argument": 9171,
      "_email": 9172,
      "Ġbelong": 9173,
      "_function": 9174,
      "Ġenemy": 9175,
      "ema": 9176,
      "ĠAddress": 9177,
      ".empty": 9178,
      "Ġinner": 9179,
      "ĠContact": 9180,
      "Loader": 9181,
      "<input": 9182,
      "ĠCA": 9183,
      "lot": 9184,
      "Ġpictures": 9185,
      "ĠSupport": 9186,
      "_names": 9187,
      "Layer": 9188,
      "ĠClick": 9189,
      "Sum": 9190,
      "Ã¦": 9191,
      "ĠLook": 9192,
      "uous": 9193,
      "Lib": 9194,
      "Flags": 9195,
      "team": 9196,
      "EP": 9197,
      "hat": 9198,
      "override": 9199,
      "apsed": 9200,
      "Ġlabels": 9201,
      "quis": 9202,
      "ĠStream": 9203,
      "_device": 9204,
      "ĠCommit": 9205,
      "(root": 9206,
      "\"}": 9207,
      ".isEmpty": 9208,
      "ĉM": 9209,
      "Ġangle": 9210,
      "ĠBecause": 9211,
      "%%%%%%%%": 9212,
      "Ġaim": 9213,
      "Ġstick": 9214,
      "stmt": 9215,
      "agraph": 9216,
      "answer": 9217,
      "Ġclin": 9218,
      "ĠIsl": 9219,
      ".ext": 9220,
      "ĠINT": 9221,
      "Ġstyles": 9222,
      "Ġborn": 9223,
      "Ġscr": 9224,
      "Ġexpand": 9225,
      "Ġraised": 9226,
      "TextBox": 9227,
      "ILL": 9228,
      "------------------------------------------------": 9229,
      "HTTP": 9230,
      ">)": 9231,
      "_char": 9232,
      "resource": 9233,
      "Ġepisode": 9234,
      "Ġ'_": 9235,
      "ĠEs": 9236,
      "ĠEarth": 9237,
      "ÂłÂł": 9238,
      "UPDATE": 9239,
      "ĠSou": 9240,
      "uis": 9241,
      "types": 9242,
      "Ġmas": 9243,
      "Ġfav": 9244,
      "Ġconstruct": 9245,
      "_rate": 9246,
      "eras": 9247,
      "Ġ|Ċ": 9248,
      "roperties": 9249,
      "Ġexternal": 9250,
      "Ġapplied": 9251,
      "Ġprefix": 9252,
      "oted": 9253,
      "lers": 9254,
      "Ġcold": 9255,
      "ĠSP": 9256,
      "ĠChurch": 9257,
      "ĠOutput": 9258,
      "losed": 9259,
      "çļ": 9260,
      "ificate": 9261,
      "operation": 9262,
      "herit": 9263,
      "xFF": 9264,
      ".env": 9265,
      "_err": 9266,
      "osh": 9267,
      "Direction": 9268,
      "Cancel": 9269,
      "ĠFrank": 9270,
      "Ġfinding": 9271,
      ".)ĊĊ": 9272,
      "Ġrouter": 9273,
      "ãĥ»": 9274,
      "ses": 9275,
      "Ġcrow": 9276,
      "=='": 9277,
      "Ġsand": 9278,
      "Ġrid": 9279,
      "iture": 9280,
      "Ġentre": 9281,
      "Ġobserv": 9282,
      "Ġvac": 9283,
      "ðŁ": 9284,
      "-T": 9285,
      "Art": 9286,
      "night": 9287,
      ".search": 9288,
      "Ġexchange": 9289,
      "Ġdistrict": 9290,
      ".os": 9291,
      "Ġdepartment": 9292,
      "Ġdocuments": 9293,
      "Ġcentury": 9294,
      "ĠNext": 9295,
      "Host": 9296,
      "ĠKIND": 9297,
      "Ġsusp": 9298,
      "-P": 9299,
      "rend": 9300,
      ".em": 9301,
      "uite": 9302,
      "isters": 9303,
      "(json": 9304,
      "ĠAnn": 9305,
      "wt": 9306,
      "ati": 9307,
      "ĠHTML": 9308,
      "when": 9309,
      "Directory": 9310,
      "Ġshut": 9311,
      "<a": 9312,
      "edy": 9313,
      "Ġhealthy": 9314,
      "Ġtemperature": 9315,
      "ĠGen": 9316,
      "Ġmetal": 9317,
      "Ġsubmit": 9318,
      "ĠDO": 9319,
      "Ġattract": 9320,
      "Ġ{};Ċ": 9321,
      "ĠWord": 9322,
      "Ġll": 9323,
      "Ġseemed": 9324,
      "ko": 9325,
      "IED": 9326,
      "Ġlabor": 9327,
      ".Context": 9328,
      "Ġasset": 9329,
      "you": 9330,
      "Ġcars": 9331,
      "ĠColumn": 9332,
      "ĠrÃ©": 9333,
      "Ġsquare": 9334,
      "ĠNSString": 9335,
      "âĢĿ,": 9336,
      "apes": 9337,
      "...Ċ": 9338,
      "Ġthanks": 9339,
      "(props": 9340,
      "Ġtick": 9341,
      "Ġexperiment": 9342,
      "Ġprison": 9343,
      "tree": 9344,
      "-text": 9345,
      "ĠIOException": 9346,
      "-width": 9347,
      "_STATUS": 9348,
      "fast": 9349,
      "-body": 9350,
      "-header": 9351,
      "Ġguar": 9352,
      "crete": 9353,
      "ĠTim": 9354,
      "Ġclearly": 9355,
      "ĠRepublican": 9356,
      "Ġjustify": 9357,
      "Ð¸ÑĤ": 9358,
      "ĉĠĠĠĠ": 9359,
      "cache": 9360,
      ";//": 9361,
      "Ġpresence": 9362,
      "Ġfactors": 9363,
      "Ġemployee": 9364,
      "]))": 9365,
      "Member": 9366,
      "Ġselector": 9367,
      "bor": 9368,
      "ĠMex": 9369,
      "çļĦ": 9370,
      "utex": 9371,
      "_tag": 9372,
      "ailure": 9373,
      "ĠNet": 9374,
      "Ġreli": 9375,
      "EG": 9376,
      "Ġfprintf": 9377,
      "Ġteen": 9378,
      "loss": 9379,
      "Ġleaving": 9380,
      "Delegate": 9381,
      "Ġbeat": 9382,
      "Ġminute": 9383,
      "subscribe": 9384,
      "Ġredistribute": 9385,
      "Constants": 9386,
      "Ġcancer": 9387,
      "/{": 9388,
[...]
